▁xxunk	0
▁xxpad	0
▁xxbos	0
▁xxeos	0
▁xxfld	0
▁xxrep	0
▁xxwrep	0
▁xxup	0
▁xxmaj	0
<unk>	0
,	-3.29448
▁the	-3.31659
▁a	-3.56001
.	-3.58233
▁of	-3.77452
s	-3.81848
▁and	-3.82316
▁to	-3.97727
▁(	-4.21456
▁in	-4.25414
-	-4.42203
)	-4.51219
▁his	-4.64797
▁is	-4.6735
'	-4.98418
▁with	-5.00231
...	-5.00826
▁her	-5.04407
ing	-5.09116
▁on	-5.09779
▁	-5.26932
▁an	-5.27806
▁by	-5.31622
▁for	-5.33405
ed	-5.39486
▁who	-5.4445
▁The	-5.48979
▁he	-5.50271
▁their	-5.50484
▁from	-5.54228
▁that	-5.54641
▁A	-5.59005
▁as	-5.60102
’	-5.77712
),	-5.87094
▁life	-5.91065
e	-5.95736
d	-6.00032
ly	-6.00505
▁at	-6.01077
▁she	-6.0337
▁has	-6.04035
▁they	-6.07804
▁this	-6.09914
▁are	-6.10991
▁when	-6.14481
▁into	-6.15436
▁young	-6.239
▁one	-6.25594
y	-6.27875
▁family	-6.29416
▁In	-6.31583
▁story	-6.35008
▁world	-6.39846
▁When	-6.43028
▁up	-6.44968
▁it	-6.48592
▁new	-6.49975
▁him	-6.52226
▁about	-6.52645
▁out	-6.53196
▁two	-6.53427
t	-6.55702
▁but	-6.56328
▁"	-6.56662
▁series	-6.57868
▁be	-6.58396
▁after	-6.6254
▁film	-6.66833
▁man	-6.66999
▁love	-6.68519
a	-6.69338
"	-6.7306
▁all	-6.73957
▁years	-6.74375
▁But	-6.75112
:	-6.76102
▁...	-6.76299
▁was	-6.81737
n	-6.866
▁New	-6.86866
▁have	-6.89915
▁where	-6.90584
▁lives	-6.92587
▁home	-6.93286
▁comedy	-6.94258
▁find	-6.95127
old	-6.96639
year	-6.96803
▁woman	-6.97581
▁only	-6.99342
▁friends	-6.99405
▁most	-6.99625
▁finds	-6.99799
▁father	-7.00329
▁them	-7.04474
▁town	-7.0558
▁will	-7.05918
▁After	-7.06843
▁time	-7.07859
▁mother	-7.08767
▁school	-7.10879
▁over	-7.11551
▁first	-7.11943
▁help	-7.14003
▁must	-7.1404
▁group	-7.16449
▁own	-7.18772
▁through	-7.19152
▁York	-7.20375
▁follows	-7.21569
▁wife	-7.21728
▁high	-7.2366
▁back	-7.24341
▁three	-7.24969
▁between	-7.25634
▁best	-7.26563
).	-7.2776
▁been	-7.27993
▁American	-7.28021
▁can	-7.28131
▁son	-7.29402
▁As	-7.29443
▁This	-7.31515
al	-7.31581
▁takes	-7.32102
▁daughter	-7.32283
▁[	-7.32336
▁drama	-7.33153
er	-7.33494
▁set	-7.33621
▁small	-7.3436
▁An	-7.34412
▁himself	-7.3531
▁more	-7.37294
▁girl	-7.38699
▁while	-7.38776
▁not	-7.38814
▁which	-7.39018
th	-7.41919
▁other	-7.41923
▁Pictures	-7.41945
▁take	-7.42134
▁becomes	-7.42398
▁He	-7.43775
▁day	-7.44339
]	-7.44357
▁true	-7.44803
▁off	-7.45167
▁people	-7.45484
▁based	-7.45544
▁down	-7.46577
▁way	-7.4716
▁same	-7.47292
o	-7.47408
▁friend	-7.48202
es	-7.4854
▁its	-7.48615
▁together	-7.49014
▁what	-7.49256
—	-7.49994
▁death	-7.50206
▁mysterious	-7.5078
▁against	-7.50996
▁no	-7.51187
▁-	-7.55225
▁documentary	-7.55486
▁journey	-7.56277
▁begins	-7.56541
▁tell	-7.57018
▁become	-7.5711
▁just	-7.58051
▁team	-7.58813
▁get	-7.59425
▁make	-7.60037
▁old	-7.60586
▁night	-7.63099
▁past	-7.64044
▁husband	-7.64433
▁before	-7.65276
▁name	-7.65674
▁–	-7.65682
▁novel	-7.65793
▁City	-7.66414
▁It	-7.66945
▁Set	-7.67359
▁work	-7.67551
▁living	-7.68791
▁secret	-7.69464
▁being	-7.69536
▁each	-7.69849
▁murder	-7.69992
▁than	-7.7005
▁“	-7.70332
▁during	-7.70644
▁year	-7.72208
on	-7.7238
;	-7.72481
▁boy	-7.73107
▁go	-7.74238
▁or	-7.74372
▁With	-7.74557
▁men	-7.74762
▁live	-7.75037
▁crime	-7.75244
▁war	-7.75713
▁former	-7.75905
▁job	-7.75956
▁comes	-7.75991
in	-7.76757
▁show	-7.77078
▁John	-7.77283
▁relationship	-7.7845
▁long	-7.79014
▁S	-7.80275
an	-7.80341
▁--	-7.8057
▁brother	-7.81159
▁discovers	-7.81616
▁police	-7.83406
▁city	-7.84815
▁behind	-7.84958
▁children	-7.84981
▁un	-7.85555
▁War	-7.85635
▁seek	-7.86262
▁last	-7.86423
▁C	-7.86458
▁meets	-7.86562
▁t	-7.86611
▁how	-7.87262
▁Films	-7.87875
▁never	-7.88373
?	-7.88627
l	-7.88712
▁named	-7.901
▁around	-7.90448
▁career	-7.90868
▁four	-7.91111
▁tale	-7.91301
S	-7.91403
▁history	-7.91708
▁forced	-7.93194
▁ex	-7.93228
r	-7.93541
▁returns	-7.93553
▁couple	-7.9379
▁local	-7.93896
▁house	-7.94657
▁both	-7.9475
▁under	-7.95314
▁some	-7.95556
and	-7.95579
▁women	-7.95729
▁music	-7.95995
▁real	-7.96144
se	-7.96154
▁save	-7.96542
▁discover	-7.96866
▁parents	-7.97351
▁She	-7.9736
▁created	-7.97384
▁now	-7.97923
▁join	-7.98066
▁there	-7.9814
▁star	-7.98193
▁U	-7.9821
▁D	-7.9827
▁so	-7.98489
▁goes	-7.99057
▁soon	-7.99678
▁college	-8.00216
▁look	-8.00375
▁place	-8.00778
▁On	-8.00857
▁America	-8.01
▁themselves	-8.01023
▁beautiful	-8.01392
▁F	-8.02128
▁future	-8.03034
▁book	-8.03531
▁you	-8.03806
▁T	-8.03939
▁Los	-8.041
▁working	-8.04403
▁thriller	-8.04435
▁days	-8.04777
en	-8.0493
▁O	-8.0523
▁like	-8.06268
▁human	-8.06758
▁B	-8.07068
▁Dr	-8.07379
▁adventure	-8.07484
▁country	-8.0765
▁dream	-8.08015
ic	-8.08048
▁run	-8.08251
▁end	-8.08304
▁do	-8.08757
▁Base	-8.08807
▁teenage	-8.09281
▁Angeles	-8.09363
▁personal	-8.09417
▁power	-8.09775
▁dangerous	-8.10175
▁left	-8.10457
▁sister	-8.10533
▁herself	-8.11364
▁come	-8.1212
▁London	-8.12161
▁away	-8.12312
out	-8.12427
▁director	-8.12522
”	-8.12548
▁mission	-8.13118
▁face	-8.13388
▁dark	-8.13888
The	-8.14274
▁David	-8.14788
▁L	-8.14803
▁events	-8.14821
▁single	-8.15174
▁turns	-8.15378
▁dreams	-8.15498
▁play	-8.15545
▁James	-8.15623
▁British	-8.16304
▁until	-8.17264
▁falls	-8.17393
▁stars	-8.17573
i	-8.17972
▁had	-8.18163
▁big	-8.18418
▁World	-8.18644
man	-8.18761
▁gets	-8.1885
▁child	-8.19336
▁student	-8.19351
▁agent	-8.19468
▁action	-8.1983
▁order	-8.19889
▁killer	-8.19908
/	-8.20573
▁another	-8.20712
▁even	-8.21041
able	-8.21258
▁romantic	-8.21492
▁car	-8.2226
▁battle	-8.22425
▁ever	-8.22528
▁decides	-8.22628
▁trying	-8.22686
▁also	-8.22887
▁prison	-8.23037
▁adaptation	-8.23291
▁search	-8.23462
▁Michael	-8.23506
▁M	-8.23892
▁turn	-8.24041
▁One	-8.24085
▁escape	-8.24665
▁summer	-8.2486
to	-8.24899
Sony	-8.24928
▁P	-8.24944
▁writer	-8.25048
▁community	-8.2558
▁Whil	-8.25771
▁return	-8.25918
▁well	-8.25952
▁re	-8.26285
▁movie	-8.26378
▁marriage	-8.26536
re	-8.2661
▁detective	-8.26834
▁heart	-8.2689
▁case	-8.27816
ve	-8.27967
▁very	-8.28103
▁trip	-8.28196
▁E	-8.28561
▁They	-8.28872
▁I	-8.28996
▁leads	-8.29273
▁Jack	-8.29453
▁known	-8.29761
▁keep	-8.29842
▁s	-8.30022
▁drug	-8.30138
▁every	-8.30151
▁dead	-8.3016
▁Two	-8.30362
▁Now	-8.30816
▁different	-8.3112
part	-8.3143
▁epic	-8.31809
▁once	-8.31814
▁fight	-8.33518
▁start	-8.33564
▁His	-8.33564
▁stop	-8.33853
the	-8.34122
▁game	-8.34269
▁business	-8.3429
▁forces	-8.35133
▁powerful	-8.35374
▁modern	-8.35485
▁classic	-8.35707
▁crew	-8.35763
▁put	-8.35806
▁six	-8.36382
▁tries	-8.3639
▁embark	-8.3643
▁bring	-8.36499
▁five	-8.36514
▁childhood	-8.36867
▁everything	-8.3687
▁chance	-8.36889
▁friendship	-8.36938
▁band	-8.37832
▁attempt	-8.37931
▁near	-8.38674
▁were	-8.3876
▁if	-8.39256
▁head	-8.39372
▁legendary	-8.39512
m	-8.40184
▁self	-8.40201
▁King	-8.40644
up	-8.40847
▁meet	-8.41122
▁little	-8.41175
▁For	-8.4154
▁moves	-8.42619
▁our	-8.42719
▁middle	-8.42789
▁evil	-8.43344
▁hard	-8.43442
▁still	-8.43867
▁desperate	-8.43903
▁would	-8.44202
▁sets	-8.4431
▁Earth	-8.44424
▁married	-8.44557
▁late	-8.44919
▁could	-8.45361
▁unexpected	-8.45364
▁girlfriend	-8.45457
▁remote	-8.45541
▁may	-8.45549
▁co	-8.45582
▁gang	-8.46093
▁later	-8.46207
▁called	-8.46391
▁including	-8.4642
▁French	-8.46666
▁company	-8.46706
Warner	-8.4723
▁next	-8.4727
▁money	-8.47334
▁protect	-8.47452
▁hit	-8.47466
!	-8.47579
▁At	-8.47711
▁lost	-8.48135
▁much	-8.48426
▁made	-8.48685
▁struggles	-8.48777
▁suddenly	-8.49073
▁Paul	-8.49084
▁stories	-8.49685
▁things	-8.49907
▁rock	-8.49942
▁century	-8.50531
▁wants	-8.50553
▁great	-8.50584
▁artist	-8.50601
of	-8.50613
▁brings	-8.50825
▁part	-8.5143
st	-8.52043
▁Sam	-8.5287
▁see	-8.5301
▁village	-8.53081
h	-8.53097
▁makes	-8.53144
▁age	-8.53333
▁move	-8.53872
▁What	-8.53905
▁free	-8.53981
▁wild	-8.54048
less	-8.54539
ce	-8.54667
▁learns	-8.54679
▁perfect	-8.54699
▁turned	-8.5479
▁early	-8.54842
▁survive	-8.54851
▁government	-8.54872
▁many	-8.54922
▁change	-8.54981
c	-8.55045
▁race	-8.55335
▁good	-8.5567
▁everyone	-8.5569
▁us	-8.5572
▁kids	-8.55816
▁To	-8.55836
▁explores	-8.5585
▁successful	-8.56157
▁road	-8.56223
A	-8.56223
▁J	-8.56252
▁Paris	-8.56273
▁accident	-8.56598
▁teacher	-8.56665
▁try	-8.56755
▁lead	-8.56901
▁seemingly	-8.56957
▁—	-8.57546
▁confront	-8.57956
▁land	-8.58109
▁far	-8.58831
▁Hollywood	-8.58951
▁begin	-8.59084
▁along	-8.59107
▁led	-8.59186
▁Tom	-8.59307
▁struggle	-8.59307
▁struggling	-8.59562
▁20	-8.59641
▁cop	-8.59883
▁W	-8.60012
▁political	-8.60013
▁care	-8.60204
▁spend	-8.60606
▁criminal	-8.60818
▁unlikely	-8.60837
▁violent	-8.60892
▁c	-8.61125
▁something	-8.6119
▁we	-8.61653
▁Bas	-8.61853
▁boss	-8.62056
▁sent	-8.62307
▁plan	-8.62405
▁Fox	-8.62438
▁focuse	-8.62504
▁fall	-8.62633
▁international	-8.62635
ie	-8.62673
us	-8.6278
▁reality	-8.62848
▁quickly	-8.62857
▁decide	-8.62859
▁form	-8.62958
▁famous	-8.63052
▁art	-8.63059
▁South	-8.6308
▁deadly	-8.63086
▁rise	-8.63501
▁R	-8.63524
time	-8.63753
▁inspired	-8.63977
."	-8.64032
▁again	-8.64276
▁black	-8.64361
▁use	-8.64421
▁social	-8.64505
▁party	-8.64654
▁FBI	-8.64865
▁Bros	-8.65025
▁officer	-8.65329
▁Black	-8.65415
▁force	-8.65479
▁since	-8.655
▁beloved	-8.65566
▁yet	-8.656
▁control	-8.65623
▁romance	-8.66095
▁learn	-8.66118
▁body	-8.66123
▁revenge	-8.66252
▁features	-8.66315
▁Her	-8.66467
or	-8.66486
▁street	-8.66673
▁coming	-8.66842
▁girls	-8.67387
▁island	-8.67519
▁Frank	-8.67606
▁missing	-8.67704
▁Ben	-8.6775
▁brothers	-8.68141
▁uncover	-8.68178
▁upon	-8.68397
▁Their	-8.68548
is	-8.68863
▁investigate	-8.6902
▁leaves	-8.6905
▁secrets	-8.69116
▁wealthy	-8.69116
▁determined	-8.69141
▁found	-8.6924
▁visit	-8.69357
▁p	-8.69887
▁France	-8.70403
▁de	-8.70428
▁sex	-8.70545
▁wrong	-8.70916
▁strange	-8.70999
▁filmmaker	-8.71043
▁Century	-8.71255
▁seems	-8.71266
▁travels	-8.71303
▁course	-8.71698
▁truth	-8.71895
▁horror	-8.71904
▁Will	-8.71927
▁popular	-8.71998
▁unique	-8.72003
▁ago	-8.72251
▁full	-8.72554
▁arrives	-8.72575
life	-8.72659
▁brutal	-8.72696
▁hilarious	-8.72718
▁Robert	-8.72718
▁comic	-8.72757
▁nothing	-8.72773
▁Peter	-8.72866
▁partner	-8.73352
▁mystery	-8.73464
▁estranged	-8.73478
▁portrait	-8.73533
Michael	-8.73829
▁know	-8.74751
▁Man	-8.74968
▁inside	-8.74987
▁encounter	-8.75251
▁law	-8.7568
▁boyfriend	-8.75998
▁Martin	-8.7607
▁streets	-8.76071
▁extraordinary	-8.76514
▁US	-8.767
▁younger	-8.76715
▁hope	-8.77032
▁whos	-8.77063
Universal	-8.77275
▁latest	-8.77329
▁alone	-8.77416
▁looking	-8.7756
▁chronicle	-8.77722
▁killed	-8.77723
▁affair	-8.77988
▁professional	-8.78016
▁N	-8.78428
▁Scott	-8.78657
D	-8.78673
▁quest	-8.7879
▁terrifying	-8.78849
▁Three	-8.78852
▁works	-8.79143
▁making	-8.7916
▁break	-8.79287
▁George	-8.79497
▁th	-8.79623
▁England	-8.79642
▁footage	-8.79644
ar	-8.79668
▁society	-8.79669
▁teenager	-8.79732
▁experience	-8.80098
▁H	-8.80118
▁top	-8.80134
▁families	-8.80442
▁California	-8.80514
▁TV	-8.80538
▁always	-8.80551
▁short	-8.80608
▁travel	-8.8077
▁characters	-8.80864
▁planet	-8.80938
Paramount	-8.81069
▁Chicago	-8.81262
▁starts	-8.81498
▁hero	-8.81944
▁executive	-8.82231
▁finally	-8.82232
▁too	-8.82624
▁II	-8.82932
▁written	-8.83017
▁owner	-8.8337
▁feature	-8.83561
▁Lee	-8.83794
▁apartment	-8.83911
▁intimate	-8.84351
▁rescue	-8.84494
▁wake	-8.84505
▁Nick	-8.84549
▁&	-8.85004
▁There	-8.8548
▁f	-8.85552
ish	-8.85716
▁Alex	-8.85916
▁suburban	-8.86219
▁television	-8.86229
▁vacation	-8.86244
▁North	-8.86289
▁forever	-8.86397
ous	-8.86487
▁wedding	-8.86602
▁within	-8.86685
▁K	-8.86914
▁leave	-8.87137
▁attack	-8.8716
ers	-8.87596
▁Sarah	-8.8766
▁musical	-8.87904
▁decades	-8.87943
▁Christmas	-8.87945
▁those	-8.88017
▁West	-8.88043
▁final	-8.88095
▁leader	-8.88195
▁deep	-8.88232
▁Joe	-8.88411
▁English	-8.88785
▁military	-8.88957
▁animated	-8.89009
▁bad	-8.89069
▁prove	-8.89368
winning	-8.89596
▁hav	-8.89632
▁Texas	-8.89744
▁Mike	-8.898
▁neighborhood	-8.899
▁singer	-8.8997
day	-8.90088
▁second	-8.90197
▁private	-8.90643
▁half	-8.90784
▁deal	-8.90818
▁white	-8.9129
▁students	-8.91349
▁these	-8.91395
▁elite	-8.91489
▁share	-8.91588
▁track	-8.91725
▁older	-8.91782
▁Jones	-8.91864
▁any	-8.92049
▁cast	-8.92063
▁relationships	-8.92147
across	-8.9236
▁recently	-8.92481
▁pair	-8.92516
▁taking	-8.92558
age	-8.92607
▁close	-8.92819
▁going	-8.93088
▁public	-8.93328
ry	-8.93443
▁fate	-8.93444
▁De	-8.93528
▁limit	-8.93544
▁complete	-8.9377
▁plans	-8.93859
▁San	-8.94102
▁However	-8.94199
▁post	-8.94205
▁serial	-8.94222
▁attempts	-8.94294
▁eight	-8.94313
▁think	-8.94506
▁original	-8.94724
est	-8.94864
▁changes	-8.94885
▁special	-8.95068
▁brought	-8.95122
▁caught	-8.95132
▁Entertainment	-8.95142
▁troubled	-8.95341
▁G	-8.95676
▁rich	-8.95714
▁cross	-8.95958
▁doctor	-8.96345
▁o	-8.96415
▁actor	-8.96536
▁present	-8.96612
▁And	-8.96988
▁few	-8.9701
▁doesn	-8.97138
▁kill	-8.9715
▁h	-8.97165
▁passion	-8.97256
▁acclaimed	-8.98314
▁investigation	-8.98345
▁stay	-8.98626
▁w	-8.9878
▁rural	-8.98913
▁became	-8.9892
▁Classics	-8.98967
▁side	-8.99198
side	-8.9923
▁following	-8.99356
▁Captain	-8.99902
▁seven	-8.99969
▁bank	-9.00111
▁murdered	-9.00146
▁b	-9.00196
▁class	-9.0066
▁taken	-9.0081
Miramax	-9.00846
▁fellow	-9.00866
▁boys	-9.01011
▁involved	-9.01145
▁1980	-9.01359
▁looks	-9.01492
▁call	-9.01503
▁author	-9.01618
▁mind	-9.01655
▁give	-9.01718
▁Kate	-9.01735
▁ends	-9.01771
▁success	-9.01801
▁greatest	-9.01879
▁growing	-9.02097
ll	-9.024
▁leading	-9.02568
▁video	-9.02568
le	-9.02655
▁win	-9.02856
▁quiet	-9.02857
▁stand	-9.02951
▁experiences	-9.02987
▁apart	-9.02999
Tom	-9.03006
▁United	-9.03101
▁Thomas	-9.03332
▁Henry	-9.03338
▁becom	-9.03506
▁sexual	-9.03773
▁Chris	-9.03942
▁want	-9.03985
▁trapped	-9.03988
▁tragic	-9.03995
▁CIA	-9.0403
▁journalist	-9.04278
k	-9.04384
▁screen	-9.0447
▁African	-9.04555
▁weekend	-9.04561
spiring	-9.04626
▁fighting	-9.04878
▁outside	-9.0492
John	-9.05003
rom	-9.05018
▁hold	-9.0504
▁Europe	-9.05127
▁neighbor	-9.05296
▁role	-9.05333
ion	-9.05375
▁hospital	-9.05916
▁identity	-9.05917
▁supernatural	-9.05918
▁High	-9.05936
▁teen	-9.06189
J	-9.06263
▁follow	-9.063
▁fast	-9.06619
▁Mr	-9.06885
▁survival	-9.0696
son	-9.07076
▁Detective	-9.07559
▁spirit	-9.07632
C	-9.08022
▁hometown	-9.08099
▁crash	-9.08593
▁destroy	-9.0864
▁shot	-9.08854
▁seen	-9.09002
▁brilliant	-9.09095
--	-9.09344
cross	-9.09474
▁lawyer	-9.09634
▁Ma	-9.09647
▁Charlie	-9.09722
▁center	-9.09781
ity	-9.09868
New	-9.099
▁dog	-9.09908
▁global	-9.09945
▁ancient	-9.10152
▁question	-9.10175
▁mom	-9.10264
▁directed	-9.10393
▁19	-9.10455
▁changed	-9.10631
▁contemporar	-9.10644
▁scene	-9.10726
▁interviews	-9.10934
▁professor	-9.10953
▁ultimate	-9.1106
▁ruthless	-9.11236
▁notorious	-9.11244
▁existence	-9.11277
▁members	-9.11387
▁thing	-9.11616
▁hours	-9.11635
▁tour	-9.11662
▁pay	-9.11755
▁Smith	-9.11826
▁train	-9.11839
▁1970	-9.11873
▁stranger	-9.11874
▁bond	-9.12152
▁person	-9.12159
▁German	-9.12164
▁better	-9.1237
▁Johnson	-9.12412
▁army	-9.12422
▁sense	-9.12463
▁lose	-9.12774
▁Dur	-9.12787
fi	-9.12934
▁path	-9.13358
▁camp	-9.13373
▁underground	-9.13449
▁baby	-9.13491
▁female	-9.13611
▁newly	-9.1362
▁legend	-9.13655
▁States	-9.13749
ne	-9.13785
▁Richard	-9.13846
▁space	-9.13853
▁character	-9.14017
▁threatens	-9.14108
▁veteran	-9.14143
▁emotional	-9.14397
▁loss	-9.14489
▁risk	-9.14572
▁anything	-9.14607
▁stage	-9.14776
▁pull	-9.14799
ment	-9.14909
ies	-9.14969
▁magical	-9.1506
▁All	-9.15068
▁soldiers	-9.15088
▁actual	-9.1524
▁feel	-9.15366
▁v	-9.15368
▁culture	-9.15394
▁ship	-9.1563
▁alien	-9.15667
something	-9.15688
ley	-9.15697
▁leaving	-9.15745
▁drive	-9.15818
▁Line	-9.15835
▁host	-9.15922
▁Mary	-9.16067
▁unexpectedly	-9.16069
American	-9.16087
▁your	-9.16144
▁record	-9.16186
▁really	-9.16337
▁producer	-9.16556
▁Mark	-9.16559
▁complex	-9.16809
▁eccentric	-9.16855
▁major	-9.16871
▁Japanese	-9.16879
▁beauty	-9.16899
▁Manhattan	-9.16905
▁highly	-9.16918
▁hired	-9.16964
▁told	-9.17202
Ben	-9.17267
▁Al	-9.1727
▁right	-9.17367
▁simple	-9.17625
▁Russian	-9.17713
▁discovery	-9.1779
▁arrival	-9.18018
▁1960	-9.18038
▁Brooklyn	-9.18104
▁Bill	-9.18262
▁does	-9.18316
▁Jane	-9.18331
ey	-9.18337
▁centers	-9.18596
ation	-9.18661
▁includes	-9.18728
▁President	-9.18911
▁event	-9.18966
▁week	-9.19022
▁charismatic	-9.19196
▁biggest	-9.19215
▁hidden	-9.19242
▁accidentally	-9.19396
▁months	-9.19563
el	-9.19583
▁guy	-9.19969
town	-9.20228
▁pregnant	-9.20385
▁store	-9.20385
▁office	-9.20405
▁adult	-9.20452
▁ambitious	-9.20456
▁haunted	-9.20467
▁teenagers	-9.20558
▁fame	-9.20637
▁runs	-9.20685
▁No	-9.20725
▁Bob	-9.20765
▁convince	-9.20774
▁Max	-9.20831
▁con	-9.20868
▁Jean	-9.20973
▁nation	-9.20996
▁desert	-9.21182
▁soldier	-9.21234
MGM	-9.21246
▁flee	-9.21339
▁driver	-9.21343
▁hotel	-9.21374
▁moment	-9.21468
▁actress	-9.21548
▁kidnapped	-9.21594
▁undercover	-9.21595
▁funny	-9.21663
▁gay	-9.21776
▁eyes	-9.2181
▁adventures	-9.21817
▁killing	-9.21819
ive	-9.22186
▁farm	-9.22228
▁Ray	-9.22275
▁reporter	-9.22402
▁system	-9.22417
▁cover	-9.22433
▁Adam	-9.2249
▁birth	-9.22521
▁news	-9.22844
▁reunite	-9.22932
▁White	-9.22967
▁So	-9.22992
▁Alice	-9.23082
▁knows	-9.23192
▁d	-9.23298
David	-9.23377
ian	-9.23426
▁appears	-9.23442
▁tragedy	-9.24044
▁crisis	-9.24064
▁justice	-9.24067
▁Mexico	-9.24111
▁violence	-9.24112
▁manager	-9.24214
▁Washington	-9.2425
▁blood	-9.24438
▁Charles	-9.24441
▁project	-9.24631
Fox	-9.24673
▁scientist	-9.24892
▁master	-9.24894
▁Life	-9.25068
I	-9.25081
▁UK	-9.25314
▁beyond	-9.25317
▁freedom	-9.25318
▁enemy	-9.25342
▁version	-9.25395
▁door	-9.25408
▁among	-9.25439
▁(20	-9.25493
▁needs	-9.25531
▁Dan	-9.25544
▁Jackson	-9.25633
▁realize	-9.25912
▁send	-9.26066
▁bar	-9.26243
▁attorney	-9.26292
▁such	-9.26571
▁mob	-9.26592
ary	-9.26667
▁faces	-9.2667
▁hopes	-9.26812
▁kind	-9.27046
▁danger	-9.27107
▁happens	-9.27406
▁Simon	-9.27448
▁club	-9.27608
▁entire	-9.2766
▁player	-9.27728
▁support	-9.27809
▁heads	-9.27843
▁estate	-9.27888
▁upside	-9.28027
▁running	-9.28121
class	-9.28144
▁Harry	-9.28182
▁navigate	-9.28269
James	-9.28554
▁steal	-9.28567
by	-9.28597
▁born	-9.28797
▁plot	-9.28941
▁solve	-9.29
▁isolated	-9.29178
▁r	-9.29264
▁ordinary	-9.29284
▁target	-9.29321
▁fashion	-9.29356
▁rare	-9.29385
▁encounters	-9.29416
▁powers	-9.2947
▁trouble	-9.29778
▁safe	-9.30151
▁Award	-9.30275
▁million	-9.30335
▁season	-9.30342
▁backdrop	-9.30455
▁shocking	-9.30517
▁winning	-9.30568
ful	-9.30678
▁Cinema	-9.30691
▁spy	-9.3074
▁nature	-9.31019
▁enter	-9.31091
▁sees	-9.3114
▁Through	-9.31575
▁lover	-9.31663
▁miniseries	-9.3181
▁China	-9.31828
▁lonely	-9.31829
▁heist	-9.31868
▁originally	-9.32073
▁sci	-9.3211
▁state	-9.32113
▁Anna	-9.32186
▁produced	-9.32204
▁Film	-9.32301
▁Jim	-9.32388
▁fun	-9.32618
▁threat	-9.32695
▁connection	-9.32822
T	-9.32837
IFC	-9.32869
ness	-9.32976
▁figure	-9.32976
selling	-9.33084
▁memories	-9.33141
▁explore	-9.33144
▁innocent	-9.33146
▁memory	-9.33162
▁moving	-9.33267
▁drawn	-9.33315
▁Tony	-9.33436
▁finding	-9.33517
▁pick	-9.33547
▁media	-9.33552
▁whom	-9.33646
▁Steve	-9.33725
voiced	-9.3409
getting	-9.34142
▁10	-9.34309
▁pursue	-9.34399
▁William	-9.34416
▁gives	-9.34511
▁raise	-9.34563
▁hands	-9.34577
▁East	-9.34677
▁hunt	-9.34814
filled	-9.34959
▁open	-9.35046
▁Star	-9.35236
ng	-9.35447
▁need	-9.35607
▁Kevin	-9.35661
▁sea	-9.35768
▁twenty	-9.35885
▁dance	-9.36012
▁met	-9.36102
▁sisters	-9.3613
▁might	-9.36174
▁throw	-9.3647
▁Daniel	-9.36471
▁alive	-9.36519
▁stumble	-9.36563
Paul	-9.36827
▁shows	-9.36938
▁reveals	-9.37046
▁routine	-9.37136
u	-9.37279
▁daily	-9.37309
▁sinister	-9.37331
▁Agent	-9.37333
▁sequel	-9.37333
▁football	-9.37358
▁infamous	-9.37705
▁often	-9.37709
given	-9.37919
▁award	-9.38046
▁Day	-9.38135
▁Over	-9.38351
▁means	-9.3837
▁musician	-9.3853
▁St	-9.38656
▁others	-9.38747
▁unknown	-9.3876
▁industry	-9.38789
▁ten	-9.38818
▁cult	-9.38823
ical	-9.3888
at	-9.38883
▁terror	-9.38902
▁room	-9.38909
ial	-9.3892
▁Jr	-9.3903
▁security	-9.39125
▁building	-9.39202
▁realizes	-9.39269
▁Elizabeth	-9.39455
▁strangers	-9.39537
▁create	-9.39582
▁multi	-9.40002
▁recent	-9.40012
▁enough	-9.40185
▁super	-9.40471
▁Christian	-9.4057
▁common	-9.4086
spired	-9.40939
▁loving	-9.40945
▁Love	-9.40951
▁Dave	-9.4097
▁ill	-9.41002
f	-9.41109
he	-9.41139
▁Jake	-9.41186
▁rest	-9.41228
▁Rose	-9.41274
▁non	-9.41276
off	-9.41315
▁rival	-9.41317
▁talk	-9.41339
▁passionate	-9.41526
▁eye	-9.41528
▁fictional	-9.41599
▁times	-9.41622
▁Releasing	-9.41689
▁gold	-9.41826
▁House	-9.4183
▁Vegas	-9.4183
▁ultimately	-9.41896
▁murders	-9.41936
▁raised	-9.42068
z	-9.421
▁m	-9.42166
▁Williams	-9.42229
▁abandoned	-9.42251
▁prepare	-9.42434
▁task	-9.42461
creasingly	-9.42651
▁Red	-9.42723
Jason	-9.42806
▁i	-9.42876
▁thought	-9.42933
▁mid	-9.43015
▁kid	-9.43045
▁soul	-9.43056
▁bizarre	-9.43155
▁Louis	-9.43186
▁fantasy	-9.43203
ally	-9.43273
▁18	-9.43344
▁instead	-9.43377
▁La	-9.43418
▁pre	-9.43858
▁los	-9.44016
▁test	-9.44243
▁pop	-9.44361
▁Stone	-9.4448
▁offers	-9.44482
▁whole	-9.44635
▁act	-9.44691
▁someone	-9.44718
▁Jewish	-9.44745
▁Four	-9.44765
▁gone	-9.44889
▁Davis	-9.44953
▁hand	-9.45066
▁Stephen	-9.45151
om	-9.45273
▁Laura	-9.4538
▁challenge	-9.45382
▁Eric	-9.45387
▁station	-9.45394
ting	-9.45395
▁witness	-9.4573
▁Follow	-9.45835
▁Nazi	-9.46005
▁e	-9.46077
ch	-9.46126
▁universe	-9.46148
▁Japan	-9.46198
▁attention	-9.46202
▁iconic	-9.46217
▁birthday	-9.46219
▁complicated	-9.4628
▁Chinese	-9.46284
▁Italian	-9.46313
▁double	-9.46367
aged	-9.46412
g	-9.46653
▁don	-9.46726
▁drugs	-9.46839
▁Matt	-9.46903
▁fire	-9.4692
▁assassin	-9.47056
▁falling	-9.47236
▁continues	-9.47241
▁3	-9.47307
▁line	-9.47451
▁beginning	-9.47658
▁senior	-9.47662
▁service	-9.47697
tic	-9.47697
▁hundred	-9.47762
ok	-9.47781
▁build	-9.47809
▁intense	-9.47832
▁Big	-9.47836
▁incredible	-9.47843
▁businessman	-9.47847
▁legal	-9.47869
▁Green	-9.47907
▁program	-9.47931
▁l	-9.47933
ist	-9.47978
▁playing	-9.48069
▁Moore	-9.48086
be	-9.48188
▁receive	-9.48235
▁Johnny	-9.48545
▁15	-9.48554
▁lifetime	-9.4867
▁dramatic	-9.48696
▁magic	-9.48713
▁idea	-9.48748
▁lands	-9.48787
▁corrupt	-9.48942
▁focus	-9.49065
▁generations	-9.4919
▁holiday	-9.49247
▁choice	-9.49251
▁Re	-9.49316
▁member	-9.49319
▁Young	-9.49323
▁Academy	-9.49349
▁Francisco	-9.49355
▁handsome	-9.49357
▁1950	-9.49376
▁countryside	-9.49391
▁Great	-9.49433
▁retired	-9.49454
▁point	-9.49537
▁pilot	-9.49544
▁toward	-9.49589
▁hot	-9.49595
ready	-9.49602
▁food	-9.49642
▁grown	-9.49663
▁Jason	-9.49705
▁sexy	-9.49756
▁examines	-9.49854
▁agrees	-9.50138
,”	-9.5031
▁then	-9.50346
▁films	-9.50389
M	-9.50522
▁air	-9.50528
▁befriend	-9.5053
▁park	-9.50646
Robert	-9.5076
▁normal	-9.50887
▁attend	-9.50917
te	-9.50918
▁controversial	-9.5097
▁BBC	-9.50988
▁opportunity	-9.50994
▁youth	-9.51021
▁border	-9.51046
▁Arthur	-9.51053
▁front	-9.51159
▁challenges	-9.51223
▁storm	-9.51261
R	-9.51289
▁Oscar	-9.51291
▁seem	-9.51317
▁Andy	-9.51607
▁Danny	-9.5164
▁escapes	-9.51763
▁Rachel	-9.51851
K	-9.51873
▁Gold	-9.51902
▁recruit	-9.51919
▁Ryan	-9.52007
▁Billy	-9.52013
▁Amy	-9.52015
▁teams	-9.52155
▁God	-9.52179
▁balance	-9.52267
▁meeting	-9.52308
▁dies	-9.5241
▁large	-9.52471
▁voice	-9.52502
▁believes	-9.52514
▁ghost	-9.52591
ized	-9.52598
▁period	-9.526
▁anthology	-9.52607
▁exploration	-9.52608
▁fortune	-9.52613
▁Gate	-9.52619
▁stranded	-9.52619
▁Army	-9.52679
▁firm	-9.52681
▁Grace	-9.52798
▁accused	-9.52817
▁deeply	-9.52946
▁renown	-9.52969
▁humans	-9.53079
▁cat	-9.53183
▁light	-9.53194
▁fear	-9.53411
▁despit	-9.53479
▁criminals	-9.53522
▁We	-9.5367
▁Jay	-9.53717
▁causes	-9.53765
▁desire	-9.53887
ard	-9.5391
▁agents	-9.53936
▁Hall	-9.53975
▁victims	-9.54072
▁used	-9.54087
▁fresh	-9.54242
▁psychological	-9.54269
▁defend	-9.54314
▁intelligence	-9.54326
▁trial	-9.54338
ine	-9.54358
▁honor	-9.54379
▁creative	-9.5445
▁30	-9.54485
▁let	-9.54532
▁released	-9.54554
▁assistant	-9.54561
▁cut	-9.5457
▁dad	-9.54586
as	-9.54592
▁date	-9.54618
▁low	-9.54649
▁nurse	-9.54718
▁Steven	-9.54905
▁Van	-9.54972
▁divorce	-9.55146
▁Tim	-9.55257
▁Me	-9.55263
▁loves	-9.55404
con	-9.55426
▁process	-9.55441
▁creatures	-9.55441
na	-9.55762
▁sudden	-9.55783
▁because	-9.55976
▁Queen	-9.55993
▁important	-9.55999
▁corporate	-9.56026
▁obsession	-9.56035
▁Special	-9.56057
▁restaurant	-9.56072
▁Director	-9.56096
ra	-9.56113
▁coast	-9.56176
▁cash	-9.56204
▁Wilson	-9.56282
▁male	-9.56304
midst	-9.5633
▁died	-9.56415
▁unit	-9.5642
▁ability	-9.56476
▁won	-9.56834
▁hide	-9.56901
▁inner	-9.56911
▁medica	-9.57027
▁ways	-9.57097
▁traveling	-9.57121
▁worker	-9.57176
▁'	-9.57297
▁That	-9.57364
ded	-9.57454
▁disappearance	-9.57689
▁conspiracy	-9.5769
▁Despite	-9.57692
▁humor	-9.57695
▁massive	-9.57706
▁consequences	-9.57742
▁humanity	-9.57762
▁hostage	-9.57792
▁decade	-9.57794
▁dealer	-9.57922
ther	-9.57946
▁Un	-9.57992
▁Ho	-9.58004
ia	-9.58037
▁step	-9.5807
.)	-9.58086
▁Brian	-9.58231
▁Lucy	-9.58236
▁First	-9.5843
it	-9.58468
▁Las	-9.58541
▁g	-9.58595
▁survivors	-9.58683
▁Be	-9.58717
▁12	-9.58775
▁scheme	-9.58786
▁12-	-9.58795
▁Anne	-9.58867
▁enlist	-9.59004
▁rules	-9.59296
B	-9.59418
▁Rock	-9.59432
▁assignment	-9.59451
▁thief	-9.59468
▁retirement	-9.59478
▁favorite	-9.59505
▁reluctantly	-9.59551
▁impossible	-9.59555
▁Miller	-9.59556
like	-9.59592
▁result	-9.59649
▁perform	-9.59658
hour	-9.59694
▁severa	-9.59703
▁Taylor	-9.59963
▁Bell	-9.59994
▁cops	-9.60226
▁though	-9.6025
▁odds	-9.60262
▁president	-9.60404
▁2	-9.60421
▁grows	-9.60579
▁Disney	-9.60689
▁Brown	-9.60707
▁mysteriously	-9.60887
▁talent	-9.61059
Mark	-9.61101
▁rule	-9.61185
▁morning	-9.61227
▁Together	-9.61227
▁however	-9.6125
▁else	-9.61254
▁Little	-9.61259
▁Searchlight	-9.61259
▁clear	-9.61272
▁agency	-9.61315
▁remarkabl	-9.61321
▁religious	-9.61324
▁situation	-9.61348
▁daring	-9.61349
▁dying	-9.61352
▁decision	-9.61356
▁‘	-9.61376
land	-9.61378
▁Island	-9.61391
▁chaos	-9.61406
▁breaks	-9.61475
▁court	-9.61709
▁residents	-9.6184
▁El	-9.62059
▁cases	-9.62087
▁Don	-9.62135
▁X	-9.62159
▁sleep	-9.62802
▁thrust	-9.6308
▁transport	-9.63082
▁science	-9.63135
▁Long	-9.63195
▁problem	-9.63202
▁performance	-9.63213
▁circumstances	-9.63231
▁capture	-9.63247
▁Park	-9.63353
▁Lo	-9.63376
▁vampire	-9.63412
▁Lewis	-9.63452
ton	-9.63456
▁Co	-9.63569
facing	-9.6363
▁shelter	-9.63631
▁You	-9.63684
▁training	-9.63998
long	-9.6402
▁water	-9.64137
▁audiences	-9.64252
▁sports	-9.64256
▁lies	-9.64344
▁claim	-9.64469
nce	-9.64548
▁faced	-9.64589
▁played	-9.64804
▁believe	-9.64822
▁difficult	-9.64881
▁Up	-9.64882
▁comedic	-9.64897
▁pursuit	-9.64902
▁Police	-9.64916
▁stolen	-9.64926
▁Mexican	-9.64929
▁eventually	-9.6493
Lions	-9.65004
▁Australian	-9.65052
▁Jimmy	-9.65072
▁Le	-9.65173
▁title	-9.6523
▁Force	-9.65235
▁heroes	-9.65304
▁ground	-9.65314
um	-9.65324
▁meaning	-9.655
▁mountain	-9.65596
▁style	-9.65734
▁generation	-9.65858
▁surprise	-9.65941
▁cold	-9.65948
▁May	-9.66084
▁tracks	-9.66417
▁invite	-9.66477
▁fears	-9.66587
▁number	-9.66608
▁suspect	-9.66633
▁reach	-9.66707
▁faith	-9.66782
▁underworld	-9.66811
▁enjoy	-9.66814
▁Vietnam	-9.66815
▁reconnect	-9.66817
Chris	-9.66818
▁Berlin	-9.6683
▁gain	-9.66836
▁expert	-9.66868
▁corruption	-9.66869
▁martial	-9.66921
▁did	-9.66928
▁already	-9.66938
▁broken	-9.66954
▁almost	-9.66973
▁organization	-9.67046
▁photographer	-9.67071
night	-9.67383
▁woods	-9.67413
▁disappears	-9.67445
▁held	-9.67474
▁develops	-9.67481
▁got	-9.6754
▁expose	-9.67592
▁places	-9.67627
▁aging	-9.67878
▁Fr	-9.67904
one	-9.67919
▁V	-9.6793
▁match	-9.68083
▁debut	-9.68314
▁financial	-9.6852
la	-9.68687
▁came	-9.68759
▁possible	-9.68775
▁poor	-9.68812
▁Five	-9.68834
▁earth	-9.68852
▁Boston	-9.68884
▁lived	-9.68919
▁landscape	-9.68969
▁suicide	-9.69007
▁Germany	-9.69048
▁computer	-9.6905
▁Mo	-9.69197
▁issues	-9.69219
▁skills	-9.69271
▁guide	-9.69522
▁Hill	-9.69678
▁Eve	-9.70038
▁conflict	-9.701
▁able	-9.70247
▁direct	-9.70329
▁assign	-9.70362
▁watch	-9.70366
▁torn	-9.7046
▁17	-9.70489
▁problems	-9.70565
▁strong	-9.7066
▁dedicated	-9.70689
▁potential	-9.70731
▁Southern	-9.70745
▁study	-9.70756
▁engaged	-9.70784
Jessica	-9.70792
Josh	-9.70801
using	-9.70926
▁victim	-9.7093
▁cousin	-9.70959
▁lifelong	-9.70963
▁accept	-9.70964
▁competition	-9.70967
▁tough	-9.71006
▁walk	-9.71008
▁captured	-9.71009
▁gangster	-9.71037
▁crimes	-9.71078
▁phone	-9.71133
ted	-9.71139
▁comedian	-9.7118
▁novels	-9.7119
▁pressure	-9.71327
▁camera	-9.71355
Adam	-9.71544
▁Leo	-9.71629
▁daughters	-9.71661
▁movies	-9.71741
▁16	-9.71749
▁25	-9.71857
▁recover	-9.71939
▁deliver	-9.72047
▁mean	-9.7226
▁catch	-9.72523
▁jail	-9.72622
▁legacy	-9.72665
▁enigmatic	-9.72667
▁stunning	-9.72677
▁web	-9.72696
▁itself	-9.72706
▁defeat	-9.72713
▁began	-9.72727
▁illegal	-9.72737
▁exact	-9.72742
▁genius	-9.72778
▁trace	-9.72898
b	-9.72907
▁Jordan	-9.72964
▁experiment	-9.72973
▁charming	-9.72978
▁warrior	-9.72981
▁immigrant	-9.72994
▁shadow	-9.73057
▁shy	-9.73134
▁nightmare	-9.73147
▁talented	-9.73156
Premiere	-9.732
▁divorced	-9.73206
red	-9.73286
▁Wood	-9.73481
▁lovers	-9.73522
▁Fro	-9.73778
▁peace	-9.7384
▁nine	-9.73841
▁Andrew	-9.73924
▁spin	-9.7397
▁Emily	-9.74012
▁teens	-9.74304
▁Josh	-9.74557
▁1930	-9.74705
▁redemption	-9.74714
▁prevent	-9.74715
▁globe	-9.7472
▁courage	-9.74722
▁impact	-9.74744
▁everyday	-9.74765
▁retreat	-9.74769
▁responsible	-9.74783
▁compete	-9.74833
▁remain	-9.74859
▁shock	-9.74953
▁release	-9.74992
▁Best	-9.74998
▁devote	-9.75096
▁giant	-9.75116
▁concert	-9.75122
▁terrorist	-9.75159
▁Along	-9.75179
▁era	-9.75397
▁scientists	-9.75452
▁uncle	-9.75453
▁40	-9.75504
▁edge	-9.75613
▁Jo	-9.76011
▁coach	-9.76351
▁sign	-9.7641
▁vicious	-9.766
ur	-9.76691
▁bright	-9.76756
▁State	-9.76778
▁basketball	-9.7679
▁idyllic	-9.7679
▁third	-9.76817
▁Orleans	-9.76817
▁elderly	-9.76818
▁worst	-9.76818
▁bitter	-9.7682
▁Ed	-9.76863
▁sometimes	-9.76893
▁novelist	-9.769
▁tradition	-9.76945
▁chief	-9.76955
▁count	-9.77003
Anna	-9.77032
Jennifer	-9.77039
▁cultural	-9.77048
▁celebrated	-9.77112
▁Harris	-9.77204
▁constant	-9.77225
▁Walter	-9.77251
▁debt	-9.77252
▁contact	-9.77301
▁millions	-9.77415
▁inter	-9.77421
▁research	-9.77435
▁Boy	-9.77436
▁collide	-9.77479
▁fights	-9.77491
▁paths	-9.77668
law	-9.77669
ty	-9.77851
turned	-9.78036
▁neighbors	-9.78147
▁Street	-9.78236
▁poet	-9.78262
▁mental	-9.78275
▁fact	-9.78295
▁killers	-9.78384
▁remains	-9.78496
▁reveal	-9.78512
▁physical	-9.78837
▁rebellious	-9.78917
▁evidence	-9.78918
▁profound	-9.7892
▁1990	-9.78925
E	-9.78953
▁outrageous	-9.78963
Jack	-9.78967
▁4	-9.78974
▁dating	-9.79004
▁terrible	-9.79005
▁punk	-9.79009
▁Fred	-9.79032
▁historical	-9.79051
▁virus	-9.79068
▁arrive	-9.79073
▁peaceful	-9.79076
▁access	-9.79077
▁fallen	-9.7914
▁Allen	-9.79203
▁Do	-9.79226
▁icon	-9.79399
▁disaster	-9.79414
▁Ali	-9.79507
▁arts	-9.79518
Matt	-9.79544
▁nucle	-9.79606
▁hunter	-9.79657
▁anti	-9.79907
ter	-9.7994
▁Jeff	-9.8016
house	-9.80184
▁11	-9.80237
▁Ford	-9.80548
▁midst	-9.80687
▁national	-9.80777
p	-9.8097
▁India	-9.8108
▁Florida	-9.8109
▁Miami	-9.81091
▁knew	-9.81091
Sam	-9.8111
▁current	-9.81125
▁today	-9.81143
▁stuck	-9.81156
▁discovered	-9.81161
▁Walker	-9.81183
men	-9.81185
▁Features	-9.8124
▁cinematic	-9.81278
▁interest	-9.81279
▁happy	-9.81322
▁key	-9.81331
▁easy	-9.81374
x	-9.81387
▁siblings	-9.81398
Kevin	-9.81429
▁setting	-9.81497
▁offer	-9.8158
▁Kelly	-9.81609
▁operation	-9.8163
▁resort	-9.81649
▁writing	-9.81688
▁Israeli	-9.81701
▁why	-9.81715
▁mentor	-9.81939
co	-9.82013
▁sentence	-9.82017
▁Civil	-9.82215
▁plane	-9.8228
▁Alan	-9.82368
▁loose	-9.82489
▁20-	-9.8249
▁demons	-9.82596
▁marry	-9.82892
▁portray	-9.83008
▁blind	-9.83046
▁13	-9.83158
▁invasion	-9.83313
▁University	-9.83315
▁School	-9.83316
▁widow	-9.83317
▁Italy	-9.8332
▁commit	-9.8333
▁remake	-9.8333
▁unusual	-9.83339
▁behavior	-9.83362
▁heroic	-9.83393
▁independent	-9.83442
▁Carter	-9.83453
▁surface	-9.83537
▁effort	-9.83574
▁twisted	-9.83604
▁view	-9.83695
▁investigating	-9.83741
▁revealing	-9.83788
▁buy	-9.83794
▁Murphy	-9.83808
▁Can	-9.83822
▁operative	-9.83858
▁picture	-9.83889
▁investigator	-9.83891
▁refuses	-9.83902
▁bold	-9.83938
▁champion	-9.83954
▁Joseph	-9.83978
▁dancer	-9.84048
▁shop	-9.84055
▁Jonathan	-9.84148
▁hell	-9.84349
w	-9.84487
▁patients	-9.84713
▁Emma	-9.84761
▁strikes	-9.84789
▁serve	-9.84841
ka	-9.85016
▁forest	-9.85159
▁unravel	-9.85272
led	-9.85365
▁cinema	-9.85389
▁Africa	-9.85408
▁trail	-9.85437
▁Night	-9.85476
▁captures	-9.85488
▁provocative	-9.85585
▁devastating	-9.85593
▁searching	-9.85602
▁fairy	-9.85602
▁Kong	-9.85609
▁disturbing	-9.85626
▁imagination	-9.85628
▁Just	-9.85649
▁urban	-9.85664
▁psychiatrist	-9.8568
▁Cooper	-9.85752
▁Tommy	-9.85854
▁descend	-9.85986
▁traditional	-9.86024
▁die	-9.86035
▁Not	-9.86042
▁Parker	-9.86098
▁tested	-9.861
▁Li	-9.86242
▁blue	-9.86242
▁subject	-9.86252
▁lifestyle	-9.8631
▁Eddie	-9.86397
▁respect	-9.86433
▁Luke	-9.86503
▁Soviet	-9.86504
▁moved	-9.86694
▁price	-9.8671
▁demon	-9.86794
▁Morgan	-9.86865
▁spen	-9.86922
▁plague	-9.87039
▁staff	-9.87119
▁pro	-9.87123
▁lot	-9.87307
star	-9.87373
▁hip	-9.87558
▁Jennifer	-9.87609
▁8	-9.87638
▁Indian	-9.87687
▁trust	-9.87708
▁wilderness	-9.87912
▁celebrity	-9.87953
▁destiny	-9.87982
▁politics	-9.88026
▁flight	-9.88064
▁separated	-9.88134
quite	-9.88143
▁raising	-9.88164
rous	-9.88207
▁revealed	-9.88289
▁Claire	-9.88297
▁provide	-9.88367
▁interview	-9.88402
▁Julia	-9.88465
▁Roman	-9.88486
▁charged	-9.88505
den	-9.8854
▁less	-9.88593
▁movement	-9.88602
▁Or	-9.88656
▁monster	-9.88669
▁wanted	-9.88684
▁oil	-9.88855
▁chain	-9.889
▁Who	-9.89082
▁civil	-9.89191
▁answers	-9.89228
▁pass	-9.89495
▁Kim	-9.89544
▁sons	-9.89639
mer	-9.89693
▁should	-9.89836
▁dealing	-9.90008
ookie	-9.90095
▁Jersey	-9.90291
▁brink	-9.90293
▁phenomenon	-9.90295
▁surgeon	-9.90339
▁visionary	-9.90342
▁straight	-9.90352
▁drifter	-9.90359
▁particular	-9.90369
▁anyone	-9.90375
▁Bo	-9.90385
▁starring	-9.90387
▁locked	-9.90403
▁Navy	-9.90431
▁convicted	-9.90457
▁Soon	-9.90462
▁Korean	-9.90469
▁loved	-9.90476
▁threatened	-9.90572
▁hi	-9.90732
▁Ba	-9.90874
spirited	-9.90937
▁ha	-9.90944
▁Befor	-9.9095
▁scandal	-9.90981
▁doing	-9.90986
▁activist	-9.91009
▁animal	-9.91036
▁Cage	-9.9105
▁Russell	-9.91054
▁intrigue	-9.91101
▁franchise	-9.91149
▁worlds	-9.91275
▁hunting	-9.91298
▁rights	-9.91453
▁trio	-9.91465
▁fiction	-9.91845
▁st	-9.92234
▁Wolf	-9.92282
▁breaking	-9.9229
▁south	-9.92331
▁Wall	-9.92392
▁avoid	-9.92469
▁moral	-9.92668
▁beach	-9.92714
▁Shakespeare	-9.9273
▁due	-9.92736
▁earlier	-9.92739
▁above	-9.92755
▁magazine	-9.9277
▁grandfather	-9.92775
▁population	-9.92777
▁Anderson	-9.92794
era	-9.92822
▁Gordon	-9.92825
▁robbery	-9.92834
▁vast	-9.92842
▁distant	-9.92862
▁hoping	-9.92927
▁went	-9.92958
▁Brothers	-9.92973
▁widowed	-9.93107
▁emotionally	-9.93127
▁Neil	-9.93139
▁21	-9.93226
▁suffers	-9.93262
▁Maggie	-9.93323
▁Ken	-9.9342
▁filmmakers	-9.93483
▁network	-9.93504
▁mansion	-9.93523
ling	-9.93529
▁studio	-9.93544
▁purpose	-9.93556
▁vision	-9.93629
▁creator	-9.93654
▁level	-9.9367
▁model	-9.93688
▁archiv	-9.93696
▁officers	-9.93758
▁twin	-9.93765
▁account	-9.93789
▁guys	-9.93806
▁Ethan	-9.93855
▁Super	-9.93872
▁hires	-9.93878
▁n	-9.94033
▁17-	-9.94084
▁Christopher	-9.94107
▁fighter	-9.94152
rowing	-9.94288
▁Anthony	-9.94345
well	-9.94512
▁Ron	-9.94567
director	-9.9461
▁maintain	-9.94771
iest	-9.94959
▁se	-9.95007
▁grand	-9.95059
▁strength	-9.95113
▁Ireland	-9.95229
▁Meanwhile	-9.9523
▁exclusive	-9.95232
▁exciting	-9.95234
▁exotic	-9.95241
▁superstar	-9.95244
▁Irish	-9.95245
▁seaside	-9.95255
▁Media	-9.95266
▁immediately	-9.95269
▁spectacular	-9.95269
▁captain	-9.95272
▁prestigiou	-9.95278
▁shattered	-9.95288
▁truly	-9.95292
▁church	-9.95296
but	-9.95303
▁Jerry	-9.95323
▁Yet	-9.95371
▁mistaken	-9.95385
id	-9.95397
▁launch	-9.9547
▁adopted	-9.95475
▁Cole	-9.95512
▁shift	-9.95551
▁parent	-9.95594
▁citizens	-9.95616
▁gun	-9.95721
▁sell	-9.95758
▁youngest	-9.95781
Will	-9.96034
▁Bruce	-9.96042
▁destroyed	-9.96047
▁creature	-9.96052
▁engineer	-9.96117
▁queen	-9.96125
▁king	-9.96137
▁cause	-9.96187
▁LA	-9.96251
▁surrounding	-9.96415
▁surreal	-9.96436
▁ride	-9.96507
▁piece	-9.96556
though	-9.96562
▁16-	-9.96635
▁Matthew	-9.96648
G	-9.96815
▁15-	-9.97034
▁Rob	-9.97035
▁Mar	-9.97138
▁Lu	-9.97159
▁10-	-9.97176
▁forms	-9.9722
▁Iraq	-9.97297
▁Beth	-9.97316
▁gather	-9.97447
coming	-9.97501
▁health	-9.97635
nd	-9.97706
▁Tokyo	-9.97792
▁empire	-9.97793
▁dramedy	-9.97793
▁centuries	-9.97793
▁unprecedented	-9.97794
▁International	-9.97794
▁grief	-9.97795
▁billionaire	-9.97795
▁reclusive	-9.97796
▁further	-9.97801
▁Miss	-9.97814
▁April	-9.97837
▁Catholic	-9.97838
▁university	-9.97843
▁seclu	-9.97879
▁Hong	-9.9788
▁hear	-9.97896
▁hiding	-9.97901
▁nowhere	-9.97925
▁Turner	-9.97994
▁wish	-9.98033
▁Terry	-9.98051
▁WWII	-9.98078
▁Margaret	-9.98127
▁online	-9.98135
▁adapt	-9.98139
▁Hawke	-9.98145
▁Rick	-9.98189
▁Dead	-9.98216
down	-9.98253
▁opens	-9.98289
▁throughout	-9.98293
▁twist	-9.98325
▁70	-9.98334
▁spark	-9.98342
▁reaches	-9.98345
▁terms	-9.98354
▁except	-9.98371
▁Victor	-9.98401
country	-9.98417
wife	-9.98436
▁Ted	-9.98508
▁longer	-9.98511
▁thousands	-9.98512
Disney	-9.98543
.”	-9.98611
▁Patrick	-9.98615
▁Carol	-9.98647
go	-9.98651
▁sides	-9.98672
▁treasure	-9.98687
▁kidnapping	-9.98703
▁moments	-9.98713
Kate	-9.98716
▁machine	-9.98721
▁farmer	-9.98874
▁Edward	-9.9893
▁obsess	-9.98954
grew	-9.98976
▁guard	-9.99021
▁artistic	-9.99112
▁Po	-9.99129
▁Ruth	-9.99131
▁wonder	-9.99211
▁80	-9.99347
▁sound	-9.99417
her	-9.99421
▁Go	-9.99572
▁How	-9.99575
▁animals	-9.99636
▁Lake	-9.99647
▁clean	-9.99652
▁isn	-9.99844
▁include	-9.99892
▁artists	-9.99925
▁juggle	-9.99935
▁theater	-9.99969
▁field	-10.0001
▁Ha	-10.0013
▁Australia	-10.0025
▁inspiring	-10.0028
king	-10.0029
▁superhero	-10.003
▁books	-10.0035
▁mad	-10.0039
▁tumultuous	-10.0042
▁glamorous	-10.0043
▁happen	-10.0043
▁grandmother	-10.0043
▁funeral	-10.0043
▁cancer	-10.0043
▁beneath	-10.0043
▁factory	-10.0044
▁winter	-10.0045
▁technology	-10.0047
▁built	-10.0047
▁lethal	-10.0048
▁largest	-10.0048
▁ABC	-10.0049
▁committed	-10.0049
▁fulfill	-10.005
▁radio	-10.0053
▁General	-10.0053
▁failed	-10.0053
▁production	-10.0056
▁position	-10.0056
▁eve	-10.0058
signed	-10.006
▁miles	-10.0072
▁Joan	-10.0074
▁Lawrence	-10.0077
▁lines	-10.0078
▁Bobby	-10.0095
▁initial	-10.0103
▁featur	-10.0104
▁Robin	-10.0106
Richard	-10.0119
▁discovering	-10.012
▁luck	-10.0123
▁continue	-10.0131
▁details	-10.0137
▁reunion	-10.0138
▁audience	-10.0138
▁campaign	-10.0138
▁Justin	-10.0144
▁wit	-10.0144
▁incident	-10.0145
▁brave	-10.0147
▁Good	-10.0152
▁natural	-10.0157
▁sport	-10.0161
▁sight	-10.0162
▁Sean	-10.0162
▁trained	-10.017
▁Owen	-10.0189
▁celebrate	-10.019
▁smart	-10.0195
▁bus	-10.0222
▁couples	-10.0237
▁Marine	-10.0239
▁total	-10.0258
▁24	-10.028
▁crush	-10.0285
▁Phil	-10.0293
▁Russia	-10.0294
ble	-10.0296
▁mask	-10.0297
▁box	-10.0301
▁strike	-10.031
▁Rome	-10.0312
▁ensemble	-10.0313
▁Family	-10.0313
▁presence	-10.0313
▁getaway	-10.0314
▁awry	-10.0314
▁housewife	-10.0317
▁Britain	-10.0318
▁tiny	-10.0318
▁nearby	-10.0318
▁Show	-10.0321
L	-10.0323
▁Deep	-10.0326
▁harsh	-10.0327
▁deceased	-10.0328
▁destruction	-10.0328
▁Howard	-10.0329
O	-10.0331
▁combat	-10.0337
▁reign	-10.0346
▁haunting	-10.0349
▁happened	-10.0349
▁suffering	-10.0349
▁roll	-10.0357
▁arrested	-10.0358
▁understand	-10.0364
▁Jan	-10.0367
wood	-10.0368
▁Dean	-10.0372
▁overcome	-10.0383
▁unfolds	-10.0396
P	-10.0398
Sarah	-10.0399
Jake	-10.0403
▁shared	-10.0403
▁extreme	-10.0404
▁Roberts	-10.0405
▁players	-10.0414
ster	-10.0415
▁memoir	-10.0416
▁betrayal	-10.0417
▁patient	-10.0418
▁words	-10.0434
▁Dream	-10.0442
▁moon	-10.0447
▁fans	-10.0449
▁jobs	-10.0457
cal	-10.0467
▁code	-10.0482
▁scenes	-10.0512
▁songs	-10.053
▁sever	-10.0541
ent	-10.0541
▁remember	-10.0559
▁annual	-10.057
▁Secret	-10.0575
▁push	-10.0577
▁connect	-10.058
▁quick	-10.0583
▁thirty	-10.059
▁astronaut	-10.059
▁sadistic	-10.059
▁relentless	-10.0591
▁Prince	-10.0591
▁amazing	-10.0591
▁Western	-10.0591
▁Though	-10.0592
▁rapidly	-10.0593
▁salesman	-10.0595
▁influential	-10.0595
▁baseball	-10.0595
▁sheriff	-10.0596
▁duo	-10.06
▁choose	-10.06
▁surviving	-10.0603
▁obsessive	-10.0606
▁cell	-10.0606
▁Hunter	-10.0615
▁Men	-10.0617
▁transformed	-10.0619
do	-10.0625
▁entirely	-10.063
▁passed	-10.0634
▁Molly	-10.0642
▁Studios	-10.0648
▁draws	-10.065
▁Catherine	-10.0653
et	-10.0653
▁sweet	-10.0655
▁figures	-10.0659
etermined	-10.0659
▁infiltrate	-10.066
▁finish	-10.0667
▁Miles	-10.067
▁gift	-10.067
▁promise	-10.0677
▁14-	-10.0679
▁outlaw	-10.068
▁worked	-10.0686
aught	-10.0687
Anthony	-10.0688
ated	-10.0689
▁feelings	-10.069
Emily	-10.0692
▁asks	-10.0697
▁robot	-10.0697
▁client	-10.0701
▁matter	-10.0702
▁ring	-10.0714
▁Rebecca	-10.0733
Daniel	-10.0736
il	-10.0741
▁Under	-10.0745
▁weapon	-10.0752
▁7	-10.0753
▁Air	-10.076
▁mountains	-10.0765
▁document	-10.0777
end	-10.0786
▁started	-10.0788
▁murderer	-10.0789
▁50	-10.0796
▁calls	-10.0797
▁Ten	-10.0802
▁rebel	-10.0802
▁Marie	-10.0807
▁Ro	-10.083
▁Hills	-10.0832
▁accepts	-10.0833
ner	-10.0838
than	-10.0849
▁Maria	-10.0855
▁tales	-10.0856
▁separate	-10.0858
▁reluctant	-10.0859
school	-10.0861
▁fierce	-10.0863
Touchstone	-10.0875
▁kingdom	-10.0876
▁horrifying	-10.0876
▁Department	-10.0876
▁Halloween	-10.0876
▁internet	-10.0877
▁safety	-10.0877
▁exchange	-10.0877
▁enemies	-10.0878
▁creation	-10.0879
▁cabin	-10.0879
▁jazz	-10.0881
▁Valley	-10.0882
▁consider	-10.0884
▁fearless	-10.0886
▁happily	-10.0887
▁creating	-10.0891
▁Greg	-10.0895
▁turning	-10.0897
▁witnesses	-10.09
▁grow	-10.0902
▁fateful	-10.0903
de	-10.0916
▁acros	-10.0918
▁Barry	-10.0921
Film	-10.0928
rs	-10.0938
▁introduces	-10.0943
▁serv	-10.095
before	-10.0957
▁har	-10.0966
▁creates	-10.0969
▁multipl	-10.098
Samuel	-10.098
Ryan	-10.0982
Emma	-10.0983
▁whe	-10.0986
▁addiction	-10.0994
▁bachelor	-10.0994
▁workers	-10.0997
▁priest	-10.1002
ending	-10.1012
▁Lord	-10.1014
▁market	-10.1051
▁By	-10.107
▁Hav	-10.1078
▁ma	-10.1078
▁60	-10.1083
▁ahead	-10.1091
▁horse	-10.1102
▁worse	-10.1107
enters	-10.1115
▁recruits	-10.112
▁lie	-10.1124
▁1	-10.1133
ach	-10.1133
▁suspects	-10.1145
war	-10.1154
▁serious	-10.1159
▁willing	-10.1162
+	-10.1166
▁2022	-10.117
▁genre	-10.117
▁poignant	-10.117
▁explosive	-10.117
▁Desperate	-10.117
▁huge	-10.1171
▁least	-10.1172
▁worldwide	-10.1175
▁prequel	-10.1175
▁Company	-10.1176
▁Former	-10.1178
▁awkward	-10.118
▁suspense	-10.1181
▁inspirational	-10.1182
▁stardom	-10.1182
▁Central	-10.1182
▁wishes	-10.1182
▁recount	-10.1185
▁Graham	-10.1186
▁Albert	-10.1192
▁Master	-10.1194
▁bomb	-10.1198
▁Shannon	-10.1198
▁Lady	-10.12
▁HBO	-10.1202
field	-10.1216
ently	-10.1216
▁threaten	-10.1222
▁wide	-10.1223
▁partners	-10.1225
graphic	-10.1226
▁link	-10.1235
▁Tyler	-10.1237
▁connected	-10.1247
▁Charlotte	-10.1254
based	-10.1265
▁driven	-10.1267
created	-10.1268
▁Aaron	-10.1271
▁Law	-10.1285
▁Jamie	-10.1293
▁jungle	-10.1298
▁weeks	-10.1298
▁survivor	-10.1299
▁selling	-10.1301
▁Only	-10.1313
▁Times	-10.1314
▁earn	-10.1325
▁Kat	-10.1345
▁avenge	-10.1353
ile	-10.1355
▁learning	-10.1359
ke	-10.136
▁visual	-10.1372
ily	-10.1375
▁My	-10.1377
▁Sea	-10.1382
▁Ann	-10.1391
▁returned	-10.1394
▁sun	-10.1395
▁clash	-10.1395
all	-10.1401
ious	-10.1406
▁refuge	-10.142
▁command	-10.1447
▁Ra	-10.1449
▁achieve	-10.1456
▁kills	-10.1466
▁Afghanistan	-10.1472
▁custody	-10.1472
▁fragile	-10.1472
▁turmoil	-10.1472
▁volatile	-10.1472
▁odyssey	-10.1472
▁Marvel	-10.1473
▁Beverly	-10.1473
▁horrific	-10.1473
▁illness	-10.1474
▁gripping	-10.1474
▁Death	-10.1475
▁Six	-10.1475
▁Marcus	-10.1475
▁prize	-10.1476
knit	-10.1476
▁native	-10.1476
▁angry	-10.1479
▁mankind	-10.148
▁Robinson	-10.148
▁colorful	-10.1481
▁darkness	-10.1482
▁trigger	-10.1493
▁intelligent	-10.1496
▁terminal	-10.1496
▁revolve	-10.1504
▁deeper	-10.1506
▁chilling	-10.1509
▁Oliver	-10.1518
▁Hannah	-10.1537
▁sharp	-10.1538
ory	-10.1547
▁answer	-10.158
▁charge	-10.1587
▁write	-10.1587
century	-10.1589
▁filmed	-10.1591
nt	-10.1592
▁suburbs	-10.1593
Charlie	-10.1597
Columbia	-10.1597
▁installment	-10.1607
▁Movie	-10.1609
no	-10.1611
sh	-10.1612
▁ambition	-10.1614
▁hits	-10.1618
▁stalk	-10.1619
▁Se	-10.1625
é	-10.1625
▁Stan	-10.1626
▁Out	-10.1626
▁bear	-10.164
▁stands	-10.1646
▁villain	-10.1649
▁spending	-10.1663
▁cost	-10.1664
▁Jacob	-10.1666
▁awaken	-10.1677
ern	-10.1691
▁attacks	-10.1719
▁Lik	-10.1726
▁Land	-10.1743
▁surround	-10.1752
▁deals	-10.1758
▁curse	-10.176
▁pain	-10.1764
▁foot	-10.1764
▁Yorker	-10.1767
me	-10.1768
▁fable	-10.1769
packed	-10.1777
▁settle	-10.1779
▁Service	-10.1785
▁treacherous	-10.1785
▁facility	-10.1785
▁waitress	-10.1785
▁madness	-10.1786
▁abilities	-10.1786
▁Nancy	-10.1786
▁saga	-10.1786
▁turbulent	-10.1787
▁Santa	-10.1789
▁aftermath	-10.1789
▁spiral	-10.1789
▁compelling	-10.1791
▁Pacific	-10.1791
▁Spanish	-10.1791
▁rogue	-10.1794
▁Larry	-10.1798
▁Hell	-10.1798
▁status	-10.1799
▁Bond	-10.1801
▁approach	-10.1806
▁escaping	-10.1807
known	-10.1819
▁content	-10.1836
▁crosses	-10.1838
▁Am	-10.184
▁trade	-10.1855
▁Amanda	-10.1856
▁effects	-10.1858
▁Bay	-10.1862
▁Mac	-10.1874
▁orphan	-10.189
▁followed	-10.1897
▁employees	-10.1917
Netflix	-10.192
Michelle	-10.192
&	-10.192
▁explor	-10.192
▁Dick	-10.1925
▁unconventional	-10.1927
▁Ian	-10.1932
occupied	-10.1932
▁homicide	-10.1933
▁editor	-10.1937
▁transforms	-10.195
▁zombie	-10.1953
▁Nation	-10.1953
ski	-10.1953
▁Jesse	-10.1956
▁changing	-10.1958
▁surprising	-10.1968
▁charm	-10.1969
▁Lily	-10.1976
▁influence	-10.1985
Casey	-10.1993
▁Pa	-10.1994
▁Ch	-10.2009
▁loyal	-10.2014
▁crack	-10.2015
stakes	-10.2023
▁actors	-10.2043
Joel	-10.207
▁heiress	-10.2092
ette	-10.2106
▁trilogy	-10.2108
▁ultra	-10.2108
▁witch	-10.2108
▁bounty	-10.2108
▁idealistic	-10.2108
▁innocence	-10.2109
▁diverse	-10.2112
▁Francis	-10.2112
ever	-10.2113
▁chef	-10.2113
▁soccer	-10.2114
▁independence	-10.2114
▁duty	-10.2114
hearted	-10.2117
▁economic	-10.2118
em	-10.2122
▁Union	-10.2123
▁passes	-10.213
▁Annie	-10.2133
▁rising	-10.2138
▁Rio	-10.2146
▁orphaned	-10.2149
▁closer	-10.2153
▁sure	-10.2161
▁Dark	-10.2163
▁Campbell	-10.2163
ri	-10.2164
▁boxing	-10.2167
▁covert	-10.2168
rmed	-10.2178
▁ensues	-10.2178
▁campus	-10.2181
▁Sophie	-10.2181
▁retrieve	-10.2181
▁Hart	-10.2187
▁secure	-10.219
▁Ada	-10.2193
▁Nazis	-10.2193
▁Jackie	-10.2193
▁passengers	-10.2199
▁medic	-10.2203
▁Bu	-10.2208
▁waiting	-10.221
▁Vincent	-10.2217
ant	-10.2223
▁Th	-10.2224
lace	-10.2224
▁images	-10.2225
Steve	-10.2235
▁murderous	-10.2236
▁u	-10.2244
Peter	-10.2245
Matthew	-10.2253
Christopher	-10.2255
Rachel	-10.2256
▁perspective	-10.2266
▁companion	-10.2266
▁Mars	-10.2267
fiction	-10.2268
▁ice	-10.2272
▁involv	-10.2275
▁undergo	-10.2276
ger	-10.2284
▁opening	-10.229
▁ocean	-10.2295
▁ca	-10.2298
▁Blue	-10.2309
▁exile	-10.2327
▁speed	-10.2348
▁Thing	-10.2349
▁wh	-10.2373
Jon	-10.2384
ville	-10.2393
▁honest	-10.2401
▁dis	-10.2406
▁Art	-10.2414
▁radical	-10.2421
▁previous	-10.2423
▁wealth	-10.2424
▁mass	-10.2431
▁ranch	-10.2433
▁Mel	-10.2436
▁inspiration	-10.2436
▁Church	-10.244
▁Inspector	-10.2441
▁luxury	-10.2441
▁gorgeous	-10.2441
▁unimaginable	-10.2441
▁twelve	-10.2441
▁reputation	-10.2441
▁isolation	-10.2441
ism	-10.2443
▁imprisoned	-10.2443
▁loyalty	-10.2443
▁election	-10.2444
▁cannot	-10.2445
▁sensitive	-10.2445
▁squad	-10.2445
▁sexuality	-10.2446
▁authorities	-10.2447
▁volunteer	-10.2447
▁Hotel	-10.2448
▁lake	-10.2451
▁widower	-10.2453
▁niece	-10.2453
▁hitman	-10.2453
▁espionage	-10.2453
▁Prize	-10.2453
▁therapist	-10.2455
▁promising	-10.2458
▁crazy	-10.246
▁sweeping	-10.2462
▁28	-10.2463
▁adopt	-10.2465
▁didn	-10.2469
▁fatal	-10.2469
▁Beach	-10.2471
▁Foster	-10.2473
▁thrilling	-10.2476
da	-10.2483
▁Diego	-10.2485
▁imagined	-10.2487
▁gifted	-10.2488
▁transform	-10.2492
his	-10.2493
secret	-10.25
▁drinking	-10.2509
▁Katie	-10.251
▁reunited	-10.252
▁Samantha	-10.2524
▁Ka	-10.2528
▁rage	-10.254
▁14	-10.2549
▁threatening	-10.255
▁colleagues	-10.2559
▁experienced	-10.2565
▁length	-10.2566
dy	-10.2582
▁broke	-10.2584
Focus	-10.2595
▁brain	-10.2598
▁contract	-10.2604
▁dinner	-10.2606
Lily	-10.2608
▁alter	-10.2609
▁revolution	-10.2611
▁Mrs	-10.2611
▁Knight	-10.2614
▁lord	-10.2617
▁letter	-10.262
▁appear	-10.2622
▁questions	-10.2631
▁Da	-10.2641
▁Michelle	-10.2641
ro	-10.2647
▁promises	-10.2649
headed	-10.2653
▁minds	-10.2674
▁presents	-10.2675
▁torment	-10.2676
Magn	-10.2688
▁fly	-10.269
ma	-10.2692
▁Di	-10.27
▁Home	-10.2707
▁Shaw	-10.2716
▁August	-10.2718
▁aid	-10.2732
▁Georgia	-10.274
aware	-10.2742
surance	-10.2766
▁steps	-10.2767
▁Korea	-10.2771
▁motion	-10.2778
▁5	-10.2778
▁princess	-10.2784
advert	-10.2786
▁elaborate	-10.2786
▁embroil	-10.2786
▁boundaries	-10.2786
▁clerk	-10.2786
▁parallel	-10.2787
▁frustrated	-10.2787
▁information	-10.2787
▁Against	-10.2788
▁prodigy	-10.2788
▁foster	-10.279
▁Parisian	-10.2791
▁conservative	-10.2792
▁assassination	-10.2794
▁Doug	-10.2795
▁Thompson	-10.2799
▁Mitchell	-10.2799
▁blend	-10.28
▁Lisa	-10.2802
▁Broadway	-10.2805
▁artificial	-10.2805
▁energy	-10.2806
▁virtual	-10.2808
▁spirited	-10.2811
▁previously	-10.2811
▁failing	-10.2813
W	-10.2816
▁timeless	-10.2819
▁contain	-10.2819
▁Emmy	-10.2822
▁Ta	-10.2823
▁Rocky	-10.2827
▁Abby	-10.2831
▁mining	-10.2832
▁sacrifice	-10.2838
▁Roy	-10.284
▁Gary	-10.284
▁Ex	-10.2844
▁Val	-10.2844
▁region	-10.2845
▁shooting	-10.2846
▁Nathan	-10.2849
▁musicians	-10.2851
▁site	-10.2857
▁Craig	-10.2858
▁vow	-10.2861
pted	-10.2863
▁watching	-10.2879
▁chase	-10.2887
▁rob	-10.2905
▁guests	-10.2907
▁unforgettabl	-10.291
▁Cold	-10.2925
▁challenged	-10.293
▁adults	-10.2934
▁red	-10.294
▁ga	-10.2943
▁official	-10.2949
Kristen	-10.2952
changing	-10.2956
Justin	-10.2958
▁chapter	-10.2968
▁album	-10.2968
▁af	-10.2972
beat	-10.2975
H	-10.2984
▁rid	-10.2989
▁locals	-10.2999
▁fan	-10.3001
▁exist	-10.3001
▁Na	-10.3016
▁Year	-10.3016
▁organize	-10.3017
▁winner	-10.3025
▁Nov	-10.3029
▁word	-10.3032
▁visions	-10.3038
▁provides	-10.3047
▁Ross	-10.3047
un	-10.3051
▁ball	-10.3056
▁forbidd	-10.3067
▁Unit	-10.3078
▁stakes	-10.3078
▁terrorists	-10.3085
▁episode	-10.3103
▁Sa	-10.3119
▁Easter	-10.3122
▁Jun	-10.3128
▁strict	-10.3129
girlfriend	-10.313
▁obsesse	-10.313
▁Leonard	-10.3138
▁board	-10.314
▁Chan	-10.3142
▁cruel	-10.3142
▁entangle	-10.3143
▁Rodriguez	-10.3143
▁riveting	-10.3143
▁vengeance	-10.3143
▁advice	-10.3143
▁heavy	-10.3143
▁unpredictable	-10.3143
▁mysteries	-10.3144
▁collection	-10.3145
▁graduate	-10.3145
▁protest	-10.3145
▁unwittingly	-10.3148
▁Detroit	-10.3149
▁knowledge	-10.315
▁bodies	-10.315
▁frame	-10.3152
▁County	-10.3152
istic	-10.3154
▁endless	-10.3154
▁Spencer	-10.3156
new	-10.3163
▁welcome	-10.3165
▁Warren	-10.3165
▁Originally	-10.3166
▁prepar	-10.3166
▁defense	-10.317
▁fiancée	-10.3172
▁fake	-10.3175
▁assassins	-10.3179
▁fishing	-10.3181
▁driving	-10.3182
▁mix	-10.3182
▁touching	-10.3184
▁Frankie	-10.3186
ta	-10.3188
ca	-10.3192
▁anonymous	-10.3192
▁June	-10.3198
▁Last	-10.3201
▁grave	-10.3207
▁viewers	-10.3208
▁6	-10.3209
▁Riley	-10.3212
▁Jenn	-10.3226
▁Pete	-10.324
uses	-10.3242
▁Jill	-10.3244
▁tensions	-10.3253
ina	-10.3256
▁origins	-10.3262
▁norther	-10.3267
▁decided	-10.3272
▁Gabriel	-10.329
▁aboard	-10.3293
▁fa	-10.3293
▁heir	-10.3297
▁drag	-10.3298
Bill	-10.3301
Scott	-10.3302
▁gangs	-10.3304
▁Ke	-10.3305
▁journeys	-10.331
▁aliens	-10.3313
including	-10.3314
▁Years	-10.3317
Martin	-10.3318
olia	-10.332
Elizabeth	-10.3323
Rebecca	-10.3325
▁evening	-10.3326
▁Liz	-10.3327
ni	-10.3328
Amy	-10.3329
ariety	-10.333
▁joy	-10.3332
▁civilization	-10.3334
▁episodes	-10.3335
▁celebration	-10.3335
▁classmate	-10.3338
▁individual	-10.3338
▁Isaac	-10.334
▁assault	-10.3344
ford	-10.3347
▁battles	-10.3349
▁Chi	-10.3355
▁odd	-10.3356
▁More	-10.3358
head	-10.3391
boarding	-10.3398
▁saving	-10.34
▁Evan	-10.3403
▁longtim	-10.3404
▁Julian	-10.3415
▁efforts	-10.3425
▁Jon	-10.3428
▁pack	-10.3429
▁Del	-10.345
▁establish	-10.3462
Rose	-10.3474
▁leaders	-10.3485
▁Jessica	-10.3487
line	-10.349
▁decisions	-10.3493
▁foreign	-10.3498
▁McCarthy	-10.3513
▁Philadelphia	-10.3513
▁College	-10.3513
▁reckless	-10.3513
▁2021	-10.3513
▁Sergeant	-10.3513
▁2023	-10.3513
▁parts	-10.3513
▁solitary	-10.3513
▁glory	-10.3514
▁therapy	-10.3514
▁Niro	-10.3514
▁suspicious	-10.3514
▁rather	-10.3515
▁thieves	-10.3515
▁realities	-10.3515
▁humorous	-10.3516
▁fit	-10.3517
▁abducted	-10.3518
▁royal	-10.3519
▁greed	-10.352
▁domestic	-10.352
▁nanny	-10.352
▁Princess	-10.352
▁Club	-10.3521
▁protection	-10.3522
▁freak	-10.3524
way	-10.3525
▁Amazon	-10.3527
▁Malcolm	-10.3527
▁sophisticated	-10.353
ha	-10.3531
▁witches	-10.3531
▁score	-10.3536
▁metal	-10.3542
▁revolutionary	-10.3542
▁Morris	-10.3545
▁Garrett	-10.3545
▁alternate	-10.3547
▁Freeman	-10.3549
▁transfer	-10.3549
▁Duke	-10.3553
▁Lopez	-10.3555
▁Cameron	-10.3555
▁buried	-10.3555
▁Nina	-10.3556
▁planned	-10.3556
▁spiritual	-10.3561
▁bloody	-10.3566
ber	-10.3567
▁usual	-10.357
▁rivals	-10.3571
▁clues	-10.3574
▁Helen	-10.3589
▁Kyle	-10.359
▁dollars	-10.3592
for	-10.3596
▁Angela	-10.3599
▁Grant	-10.3603
▁differences	-10.3604
▁wins	-10.3606
▁blow	-10.3614
▁Lucas	-10.3623
▁Girl	-10.3627
▁Mia	-10.3628
▁Americans	-10.3631
some	-10.3634
▁Alexander	-10.3635
water	-10.3635
▁Brad	-10.3639
▁Nicholas	-10.3641
▁rebuild	-10.3642
▁prey	-10.3642
▁bag	-10.3643
ture	-10.365
▁done	-10.3656
▁read	-10.3668
▁stealing	-10.3673
▁acting	-10.3679
▁Susan	-10.3679
ham	-10.368
ship	-10.368
seen	-10.3681
▁Carl	-10.3688
▁13-	-10.3697
▁Colin	-10.37
▁environment	-10.3702
▁letters	-10.3704
Henry	-10.3705
▁22	-10.3707
▁prisoners	-10.3707
Johnny	-10.3709
▁kidnap	-10.3711
Jesse	-10.3711
▁psychic	-10.3712
Thomas	-10.3712
▁disease	-10.3716
hop	-10.3724
▁Nicole	-10.3725
▁designer	-10.3725
Billy	-10.3727
▁reason	-10.3732
▁Summer	-10.3734
▁me	-10.3737
▁performer	-10.3739
▁appearance	-10.3742
▁condition	-10.3743
▁matters	-10.3744
▁notice	-10.3747
▁painting	-10.3751
▁capital	-10.3758
▁teaching	-10.3758
Timoth	-10.376
▁deaths	-10.3795
▁Ca	-10.3796
▁sing	-10.3797
▁limits	-10.3801
▁Story	-10.3806
▁hire	-10.3815
izing	-10.3819
▁Guy	-10.3819
▁grip	-10.3819
▁Boys	-10.382
▁fi	-10.382
▁warriors	-10.3837
bound	-10.3841
▁heroin	-10.3853
▁results	-10.3872
▁guilt	-10.388
▁triumph	-10.3895
▁Festival	-10.3898
▁Oregon	-10.3898
▁glimpse	-10.3898
▁pioneer	-10.3898
▁Sheriff	-10.3898
▁CEO	-10.3898
▁disillusion	-10.3899
▁spinoff	-10.3899
▁Harper	-10.39
▁motorcycle	-10.3901
▁bride	-10.3902
▁happiness	-10.3903
▁1969	-10.3903
▁ladies	-10.3904
▁Raymond	-10.3905
▁Armstrong	-10.3905
▁graduation	-10.3905
▁adulthood	-10.3905
▁dysfunctional	-10.3905
▁fought	-10.3905
▁inspire	-10.3906
▁screenwriter	-10.3906
▁general	-10.3908
▁experimental	-10.3908
▁critically	-10.3909
▁trauma	-10.391
▁Living	-10.3912
▁Fisher	-10.3912
▁Eli	-10.3916
outhern	-10.3916
▁pursuing	-10.392
▁larger	-10.392
▁forge	-10.392
▁Holmes	-10.3921
▁holidays	-10.3923
▁Mother	-10.3924
▁lady	-10.3926
▁Watts	-10.3926
▁developed	-10.3926
▁affairs	-10.3941
▁eager	-10.3942
▁Collins	-10.3942
▁crashes	-10.3951
▁lack	-10.3957
▁Even	-10.3959
▁Ellis	-10.3964
volving	-10.3978
▁Sandra	-10.398
▁span	-10.3981
state	-10.3988
▁misfits	-10.4013
▁Pi	-10.4013
▁inherit	-10.402
▁fled	-10.403
▁architect	-10.4035
▁profile	-10.4042
ring	-10.4042
▁hair	-10.4043
▁truck	-10.4047
woman	-10.4047
▁mere	-10.405
▁Joy	-10.4055
▁detectives	-10.4059
▁tech	-10.4061
uring	-10.4066
Julia	-10.4081
▁Moon	-10.4092
▁collapse	-10.4092
▁Z	-10.4096
Jim	-10.4098
city	-10.4099
▁agree	-10.4101
Laura	-10.4108
Colin	-10.4108
working	-10.4109
▁treatment	-10.411
▁district	-10.4112
ge	-10.4117
▁fugitive	-10.4122
▁challeng	-10.4123
▁prime	-10.4126
▁nightclub	-10.4129
▁clients	-10.4138
▁documents	-10.4148
▁amid	-10.4149
special	-10.4157
▁sole	-10.4157
▁Direct	-10.416
▁comfort	-10.4161
▁height	-10.4182
▁vivid	-10.4184
▁Lou	-10.4188
▁forty	-10.4197
▁fully	-10.4197
▁claims	-10.4222
▁Part	-10.4239
▁plant	-10.4248
▁Royal	-10.4257
ssa	-10.426
▁abandon	-10.4264
▁Y	-10.4269
▁addict	-10.4272
▁locate	-10.4286
▁critic	-10.4292
▁pos	-10.4293
▁base	-10.4294
▁Gloria	-10.4298
▁Pennsylvania	-10.4298
▁irreverent	-10.4298
▁Harvard	-10.4298
▁Baltimore	-10.4298
▁Television	-10.4298
▁escort	-10.4298
▁vibrant	-10.4298
▁1940	-10.4298
▁frightening	-10.4298
▁1920	-10.4299
▁Carolina	-10.4299
▁cha	-10.4299
▁Danish	-10.4301
▁Spain	-10.4302
▁expectations	-10.4303
▁desires	-10.4304
▁lab	-10.4306
▁kept	-10.4307
▁fascinating	-10.4308
▁Wendy	-10.4308
▁Working	-10.4308
▁desolate	-10.4309
▁aunt	-10.4309
▁insane	-10.431
▁Productions	-10.431
▁loner	-10.431
▁Marty	-10.431
▁LAPD	-10.4312
▁amateur	-10.4312
▁mercenary	-10.4312
▁Gray	-10.4313
▁inhabitants	-10.432
▁dumped	-10.4321
▁conquer	-10.4321
▁Virginia	-10.4324
▁embrace	-10.4324
▁unleashed	-10.4327
▁Keaton	-10.4328
▁Canadian	-10.4328
2	-10.4328
▁ideas	-10.4328
▁Hope	-10.433
▁Is	-10.4334
▁carrying	-10.4342
▁Clarke	-10.4342
▁Holly	-10.4343
▁gender	-10.4344
▁souls	-10.4344
action	-10.4346
▁Douglas	-10.4351
ese	-10.4352
▁Austin	-10.4352
▁expected	-10.4352
aka	-10.4353
▁wonderful	-10.4357
▁arrived	-10.4358
▁pursues	-10.4363
▁myth	-10.4374
▁ran	-10.4377
Al	-10.438
ler	-10.4382
George	-10.4384
▁Damon	-10.4384
▁fired	-10.4385
▁If	-10.44
▁van	-10.4413
ny	-10.4424
▁Glen	-10.4424
adventure	-10.4425
▁Some	-10.4428
ts	-10.443
tech	-10.4438
▁arms	-10.4443
▁Lane	-10.4465
▁speak	-10.4473
▁fund	-10.4474
▁Kid	-10.4477
▁frontier	-10.4478
▁Burns	-10.448
set	-10.4483
▁main	-10.4486
▁calling	-10.4493
▁Evans	-10.4504
▁wear	-10.4511
▁maid	-10.4515
Hugh	-10.4517
▁Hanks	-10.4521
Andrew	-10.4523
Katherine	-10.4525
▁basement	-10.4525
Ethan	-10.4527
▁socialite	-10.4531
V	-10.4538
▁opposite	-10.4539
▁employee	-10.4542
▁politician	-10.4546
▁say	-10.4555
,000	-10.4564
▁crook	-10.4567
▁30-	-10.4567
generation	-10.4574
▁Brazil	-10.4578
issa	-10.4578
▁teach	-10.4586
pe	-10.4593
ied	-10.4596
▁Hank	-10.4596
yne	-10.4598
▁Sh	-10.4601
▁cope	-10.4606
▁venture	-10.4607
▁Sex	-10.461
▁shape	-10.4618
▁prisoner	-10.4619
▁certain	-10.4619
▁plunge	-10.462
▁Take	-10.4627
▁Pat	-10.4628
▁ordered	-10.4633
Dian	-10.4644
▁Wars	-10.4648
▁Cross	-10.4654
▁delve	-10.4666
os	-10.467
▁Wild	-10.4677
▁Su	-10.4679
▁semi	-10.4685
▁erotic	-10.4687
▁carry	-10.4688
▁digital	-10.4692
ving	-10.4698
▁aristocrat	-10.4699
▁Chuck	-10.4701
▁Israel	-10.4702
▁Stevens	-10.4709
ThinkFilm	-10.4714
▁September	-10.4714
▁gruesome	-10.4714
▁Alaska	-10.4715
▁apparent	-10.4715
▁enormous	-10.4715
▁alternative	-10.4715
▁entertainment	-10.4715
▁department	-10.4715
▁Iranian	-10.4715
▁clinic	-10.4717
▁chosen	-10.4717
▁Drew	-10.4717
▁fantastical	-10.4717
▁Instead	-10.4717
▁bigger	-10.4718
▁inhabit	-10.4718
▁hostile	-10.4718
▁construction	-10.472
▁rivalry	-10.472
orthodox	-10.4721
▁revisit	-10.4722
▁divided	-10.4722
▁Franco	-10.4724
▁orphanage	-10.4724
▁fish	-10.4724
▁bumbling	-10.4725
▁Marshall	-10.4725
▁games	-10.4725
▁unleashes	-10.4726
▁adjust	-10.4726
▁Major	-10.4729
▁Martha	-10.473
▁Woman	-10.4731
ick	-10.4732
▁upper	-10.4736
cy	-10.4736
▁bit	-10.4739
▁Ruby	-10.4739
▁expand	-10.474
▁Meet	-10.4747
▁raw	-10.4747
▁highest	-10.4748
▁nun	-10.4749
▁Then	-10.475
etty	-10.4752
▁methods	-10.4753
▁painful	-10.4753
▁Walt	-10.4754
▁confine	-10.4757
▁homeless	-10.4761
▁Linda	-10.4762
▁cave	-10.4768
▁saw	-10.4771
▁immortal	-10.4773
▁Norman	-10.4773
▁wi	-10.4776
▁exploits	-10.4779
▁awakening	-10.4782
▁forward	-10.4783
▁Karen	-10.479
▁relatives	-10.4791
▁Every	-10.4799
ay	-10.4816
▁Benjamin	-10.4818
▁Dian	-10.4826
▁cool	-10.4833
▁Woody	-10.4837
barely	-10.4845
▁plots	-10.4854
▁extra	-10.4882
▁fuel	-10.4885
▁sub	-10.4902
art	-10.4913
▁individuals	-10.4916
▁area	-10.4917
DreamWorks	-10.4927
▁en	-10.4929
Man	-10.4941
▁arrest	-10.4944
Nick	-10.4946
who	-10.4946
▁Du	-10.4948
▁attraction	-10.4952
▁source	-10.4954
Max	-10.4959
First	-10.4959
apocalyptic	-10.4959
Jeremy	-10.496
Olivia	-10.496
▁Father	-10.4961
▁wind	-10.4962
▁Baker	-10.4965
▁newfoun	-10.4969
▁vigilante	-10.4971
▁device	-10.4972
▁prostitute	-10.498
▁prince	-10.498
fully	-10.4981
▁animation	-10.4987
▁material	-10.4988
▁clan	-10.4988
▁wait	-10.4999
▁abuse	-10.5
▁mastermind	-10.5005
▁judge	-10.5009
▁river	-10.5017
Zoe	-10.5024
▁Lang	-10.5028
▁abusi	-10.5029
▁refugee	-10.5032
▁counter	-10.5042
▁MI	-10.5046
▁River	-10.5059
ough	-10.507
▁Ja	-10.5072
▁Sun	-10.508
▁Bella	-10.5088
▁gangsters	-10.5088
ells	-10.509
▁Time	-10.5093
▁report	-10.5104
▁sold	-10.5111
▁waters	-10.5112
light	-10.5119
▁asked	-10.5124
▁evolve	-10.5125
▁Che	-10.513
▁determine	-10.5133
")	-10.5134
▁Michel	-10.5134
▁plann	-10.5144
▁Featur	-10.5145
ir	-10.5147
▁Clark	-10.5147
▁tight	-10.5149
▁Muslim	-10.5149
▁elusive	-10.5149
▁sitcom	-10.5149
▁Ohio	-10.5149
▁Colonel	-10.5149
▁runaway	-10.5151
▁wicked	-10.5151
▁26	-10.5154
▁obstacles	-10.5154
▁mild	-10.5155
▁trans	-10.5155
▁unstable	-10.5155
▁occupation	-10.5156
▁junior	-10.5157
▁Professor	-10.5157
▁disguise	-10.5157
▁flesh	-10.5157
▁species	-10.5157
▁circus	-10.5157
▁floor	-10.5157
▁typical	-10.5158
▁Maine	-10.5159
▁possibly	-10.5159
▁2020	-10.5159
ja	-10.516
▁intent	-10.516
▁household	-10.5161
▁courageous	-10.5161
▁Prime	-10.5162
▁darkest	-10.5164
▁Stewart	-10.5165
▁block	-10.5169
▁misadventures	-10.517
▁Mickey	-10.5174
▁upcoming	-10.5174
▁tried	-10.5175
▁unsolved	-10.5182
▁tense	-10.5183
▁beginnings	-10.5183
▁spring	-10.519
▁dancing	-10.5192
▁attract	-10.5192
▁green	-10.5194
▁mistress	-10.5198
▁Empire	-10.5198
▁Pierre	-10.5199
▁giving	-10.5199
ward	-10.52
▁Milo	-10.52
▁snow	-10.5201
▁forgotten	-10.5202
▁pushed	-10.5207
▁pl	-10.5212
▁pal	-10.5212
▁silent	-10.5214
▁Sharon	-10.5217
Roadsid	-10.5221
▁noir	-10.5226
▁Andre	-10.5227
▁Days	-10.5232
▁exposed	-10.5232
▁forget	-10.5233
▁drift	-10.5235
▁rap	-10.5236
▁Samuel	-10.5246
▁boat	-10.5246
▁minutes	-10.525
▁Gil	-10.5253
▁Road	-10.5265
▁March	-10.5268
am	-10.527
ho	-10.5275
ying	-10.5281
▁Byrne	-10.5292
▁Find	-10.5297
ning	-10.53
ak	-10.5313
▁winds	-10.5319
▁Both	-10.532
▁Us	-10.5334
▁says	-10.5335
▁stretch	-10.5337
Mel	-10.5347
Tim	-10.5352
ize	-10.5356
▁craft	-10.5361
▁via	-10.5375
▁buddi	-10.5403
▁spread	-10.5409
Danny	-10.5414
▁hang	-10.5418
Jamie	-10.5418
▁newspaper	-10.5422
▁magician	-10.5423
▁Kennedy	-10.5427
▁outcast	-10.5429
▁twins	-10.5432
▁Cho	-10.5433
▁location	-10.5434
Anne	-10.5434
▁tribe	-10.5435
torn	-10.5436
▁ski	-10.5441
▁focused	-10.5445
lyn	-10.5446
▁talking	-10.5447
▁league	-10.5449
▁regime	-10.5451
▁shut	-10.5451
▁shar	-10.5452
▁jump	-10.5461
▁creators	-10.5465
▁18-	-10.5473
▁inmate	-10.5475
▁spell	-10.5481
▁practice	-10.5501
▁language	-10.5506
▁hous	-10.5507
▁hunters	-10.5511
▁Age	-10.5512
▁pet	-10.5519
▁goal	-10.552
▁cook	-10.5522
ko	-10.5528
▁navigat	-10.5536
▁directors	-10.5536
▁Philip	-10.5547
fluent	-10.557
▁genetic	-10.5573
▁porn	-10.5577
ron	-10.5586
series	-10.5593
▁shoot	-10.5594
▁disast	-10.5595
made	-10.5595
arious	-10.5596
▁aired	-10.5596
▁Christ	-10.5602
▁uncertain	-10.5603
▁Hospital	-10.5604
▁collision	-10.5604
▁nephew	-10.5604
▁pandemic	-10.5604
▁reboot	-10.5604
▁Louisiana	-10.5604
▁paradise	-10.5604
▁destin	-10.5604
▁resistance	-10.5604
▁property	-10.5604
▁groundbreaking	-10.5604
▁Group	-10.5605
▁spotlight	-10.5605
▁Evil	-10.5605
▁Todd	-10.5605
▁dazzling	-10.5607
▁gambling	-10.5608
▁unsettling	-10.5608
▁eerie	-10.5609
▁activities	-10.561
▁responsibility	-10.5611
▁Twenty	-10.5611
▁Swedish	-10.5611
▁determination	-10.5612
▁scientific	-10.5612
▁Bloom	-10.5612
▁inventor	-10.5612
▁Wright	-10.5613
▁Fanning	-10.5613
▁whatever	-10.5613
▁Franklin	-10.5613
▁endur	-10.5616
▁Wi	-10.5616
▁alcoholic	-10.5616
▁amongst	-10.5618
▁equally	-10.5619
▁gambler	-10.5619
▁anniversary	-10.562
▁Greek	-10.562
▁enforcement	-10.562
▁education	-10.5621
▁laid	-10.5624
▁pool	-10.5624
▁rose	-10.5625
▁literally	-10.5625
ji	-10.5628
▁Leigh	-10.5628
▁vari	-10.563
▁astonishing	-10.563
▁deception	-10.563
nder	-10.5632
more	-10.5633
▁minor	-10.5633
▁disappeared	-10.5636
▁CBS	-10.5637
lowly	-10.5639
▁voyage	-10.5641
▁Camp	-10.5644
▁forc	-10.5646
▁Perry	-10.5648
▁designed	-10.5649
▁Hudson	-10.5655
▁Miranda	-10.5656
▁Mil	-10.566
dirty	-10.5662
▁delivery	-10.5664
▁demands	-10.5667
armed	-10.567
▁elements	-10.5672
▁Gibson	-10.5673
▁Banks	-10.5677
▁Sinc	-10.5679
▁caused	-10.5679
▁trusted	-10.5694
▁reform	-10.5708
▁design	-10.5724
bending	-10.5725
▁bet	-10.573
ya	-10.5731
▁lure	-10.5734
▁Kurt	-10.5735
▁deserted	-10.5736
▁23	-10.5751
▁Dylan	-10.5752
Ja	-10.5757
born	-10.5757
▁va	-10.5762
▁coma	-10.5776
▁spot	-10.5783
▁involve	-10.579
▁guns	-10.5798
▁24-	-10.5799
▁dangers	-10.5802
▁rises	-10.5803
▁staying	-10.5811
▁beat	-10.5812
ier	-10.5817
▁sensation	-10.5821
Alex	-10.583
▁environmental	-10.5832
▁song	-10.5832
ate	-10.5839
rey	-10.5844
▁endure	-10.5854
▁9	-10.5854
▁Fire	-10.5857
worker	-10.5871
▁detail	-10.5874
berg	-10.5875
▁Mad	-10.5881
▁suburb	-10.5884
▁narrative	-10.5886
▁psychopath	-10.5886
Liam	-10.589
▁rediscover	-10.5891
Luke	-10.5892
Jones	-10.5899
▁journalists	-10.5899
lost	-10.59
▁Mountain	-10.5903
ide	-10.5908
j	-10.5908
▁direction	-10.5912
▁fr	-10.592
▁western	-10.5927
▁Oz	-10.5936
▁fe	-10.5936
▁boxer	-10.5937
▁flame	-10.5944
▁outsider	-10.5956
aving	-10.5957
▁Chase	-10.5974
▁concept	-10.5977
▁Wa	-10.5985
▁rough	-10.5992
▁combin	-10.6003
worth	-10.6005
ance	-10.6017
putting	-10.6025
▁Tak	-10.6028
▁manage	-10.603
▁unleash	-10.6033
▁vampires	-10.6046
▁silence	-10.605
▁ended	-10.6068
▁resident	-10.6069
▁hasn	-10.607
▁instant	-10.6071
▁garden	-10.6072
▁Still	-10.6077
▁savage	-10.6079
▁Attorney	-10.608
▁Connecticut	-10.608
▁Lincoln	-10.608
▁Mississippi	-10.608
▁Oklahoma	-10.608
▁Scorsese	-10.608
▁galaxy	-10.608
▁mischievous	-10.608
▁whirlwind	-10.608
▁Hawaii	-10.608
▁impulsive	-10.608
▁expedition	-10.608
▁kingpin	-10.608
▁Scotland	-10.608
▁Never	-10.608
▁Doctor	-10.608
▁Seattle	-10.608
▁Arctic	-10.608
▁festival	-10.6081
▁Batman	-10.6081
▁gritty	-10.6081
▁humble	-10.6081
▁adolescent	-10.6081
▁motel	-10.6081
▁1988	-10.6083
X	-10.6085
aking	-10.6086
▁People	-10.6088
▁Kirk	-10.6088
▁District	-10.6088
▁transplant	-10.6088
▁freshman	-10.6088
▁Montana	-10.6088
▁Lloyd	-10.6088
▁Iran	-10.6089
▁Holland	-10.6089
▁Officer	-10.6089
▁composer	-10.609
▁naive	-10.609
▁flat	-10.609
im	-10.609
▁collective	-10.6091
▁below	-10.6093
▁perilous	-10.6094
▁disrupted	-10.6096
▁Nelson	-10.6098
▁breakup	-10.6098
▁overnight	-10.6101
▁sword	-10.6101
▁parties	-10.6102
▁mortal	-10.6103
▁lust	-10.6103
paced	-10.6104
▁Robertson	-10.6104
▁interrupt	-10.6106
▁Dennis	-10.6106
▁Victorian	-10.6106
▁lurk	-10.6107
▁bargain	-10.6109
▁overwhelming	-10.6109
▁choices	-10.611
▁fiercely	-10.6111
centered	-10.6115
mannered	-10.6116
▁Dawn	-10.6116
▁DJ	-10.6119
▁either	-10.612
human	-10.6121
▁Ly	-10.6128
▁Elliot	-10.613
ver	-10.6133
▁collect	-10.6135
▁approaches	-10.6141
▁Penn	-10.6148
▁Eva	-10.6148
▁Ralph	-10.615
▁terroriz	-10.615
Ed	-10.6153
▁Carrie	-10.6153
foot	-10.6159
▁Blake	-10.6162
▁Wells	-10.6163
▁Angel	-10.6164
▁regain	-10.6166
▁sta	-10.6171
▁anger	-10.6175
lin	-10.6178
▁Grand	-10.618
we	-10.618
▁restore	-10.6183
▁Donald	-10.6187
▁Gun	-10.619
▁slow	-10.6193
▁walls	-10.6193
▁hunted	-10.6201
▁Sara	-10.6202
▁End	-10.6215
▁Center	-10.6219
▁strive	-10.622
▁slum	-10.6224
▁Maya	-10.6224
rts	-10.6239
episode	-10.6241
▁Rad	-10.6249
▁Hunt	-10.6255
▁Space	-10.6265
▁Reed	-10.6267
▁Dog	-10.6275
pt	-10.628
▁battl	-10.6287
▁Mu	-10.629
▁develop	-10.6297
▁writers	-10.6307
▁table	-10.6308
▁1968	-10.6317
▁Joel	-10.632
▁Nicolas	-10.632
▁Dale	-10.6325
▁Son	-10.6326
▁producers	-10.6327
▁Zoe	-10.6329
which	-10.6333
▁hole	-10.6351
▁devot	-10.6352
▁prett	-10.6353
run	-10.6356
ery	-10.636
▁Snow	-10.637
Strand	-10.6375
▁imp	-10.6385
level	-10.6388
Jonathan	-10.639
▁Goldberg	-10.6393
length	-10.6394
yn	-10.6396
▁championship	-10.6398
▁gradual	-10.6403
▁painter	-10.6404
▁grad	-10.6405
▁message	-10.6405
▁guest	-10.6409
▁convict	-10.641
▁corporation	-10.6411
▁colleague	-10.6412
nspired	-10.6417
▁scam	-10.6422
Nicolas	-10.6423
▁Palestinian	-10.6425
▁Mi	-10.6425
▁image	-10.6427
spoken	-10.6428
▁activists	-10.6437
▁tear	-10.6445
▁DC	-10.6446
▁terrorize	-10.6447
▁strip	-10.6448
▁Hal	-10.6453
sing	-10.647
▁slave	-10.647
▁100	-10.6482
▁crowd	-10.6484
▁affect	-10.6492
▁Court	-10.6499
ack	-10.6507
▁conflicts	-10.6512
▁range	-10.6525
▁mount	-10.6537
ell	-10.655
▁caus	-10.6553
▁classical	-10.6554
▁reject	-10.6559
▁Roth	-10.6561
free	-10.6562
▁fiancé	-10.6566
▁Earl	-10.6575
workers	-10.6576
▁Middle	-10.6577
▁contest	-10.658
▁represent	-10.658
▁Eleanor	-10.658
▁Jacques	-10.658
▁Pulitzer	-10.658
▁epidemic	-10.658
▁merciless	-10.658
▁pregnancy	-10.658
▁samurai	-10.658
▁tranquil	-10.658
▁Veronica	-10.658
▁disparate	-10.658
▁triangle	-10.658
▁Alabama	-10.658
▁unspeakabl	-10.658
▁paranormal	-10.658
▁Colorado	-10.658
▁democracy	-10.658
▁precocious	-10.658
▁preacher	-10.658
▁ransom	-10.658
▁fifteen	-10.658
▁guidance	-10.658
▁heritage	-10.658
▁brief	-10.658
▁quirky	-10.6581
▁landmark	-10.6581
▁mafia	-10.6581
▁Harlem	-10.6581
▁satire	-10.6581
▁supposed	-10.6581
▁formidable	-10.6582
io	-10.6582
▁victory	-10.6582
▁Barney	-10.6582
▁schoolteacher	-10.6582
▁personalities	-10.6582
▁partnership	-10.6583
▁cities	-10.6583
▁podcast	-10.6583
▁breakdown	-10.6583
▁comeback	-10.6584
▁playboy	-10.6584
▁contestant	-10.6584
▁cure	-10.6585
▁bored	-10.6586
▁Bishop	-10.6588
▁Internet	-10.6588
▁empty	-10.6588
▁summon	-10.6588
▁vanished	-10.6589
▁Becky	-10.6589
▁feeling	-10.6589
▁shady	-10.6589
▁Wayne	-10.6591
▁Showtime	-10.6591
▁startling	-10.6591
▁NYC	-10.6593
▁Hardy	-10.6593
▁clock	-10.6593
▁Attractions	-10.6595
▁leap	-10.6595
▁NBC	-10.6597
▁Dallas	-10.6598
▁introduced	-10.66
▁seize	-10.66
▁Wade	-10.6601
▁personality	-10.6602
▁Page	-10.6603
▁homeland	-10.6604
▁controlling	-10.6604
▁resources	-10.6605
invited	-10.6606
Dan	-10.6606
▁Freddy	-10.6609
▁newcomer	-10.6609
▁horribl	-10.661
▁Victoria	-10.661
▁average	-10.661
▁depths	-10.6614
▁washed	-10.6617
▁Sutherland	-10.6617
▁sales	-10.662
▁patrol	-10.6621
▁Harold	-10.6626
▁assort	-10.6627
▁Side	-10.6628
▁Diana	-10.6631
▁Laurie	-10.6633
▁Megan	-10.6636
▁competitive	-10.6637
▁Ellen	-10.6638
▁Brooks	-10.6643
▁escalates	-10.6643
minded	-10.6644
▁Julie	-10.6645
▁nemesis	-10.6646
▁Murray	-10.6647
ze	-10.6647
▁Trav	-10.6662
▁bombing	-10.6662
▁racing	-10.6664
▁emotions	-10.6667
ryn	-10.667
▁reinvent	-10.6674
▁Ever	-10.668
▁combine	-10.6681
▁targets	-10.6682
▁marrying	-10.6683
▁passing	-10.6685
▁Ashley	-10.6686
▁Thor	-10.6689
holds	-10.6691
▁fill	-10.6693
boy	-10.6697
ck	-10.6706
found	-10.6707
▁Connor	-10.6708
elcome	-10.6708
▁sky	-10.6721
▁ruins	-10.6722
with	-10.6727
world	-10.673
Premier	-10.6731
▁pals	-10.6754
▁touch	-10.6759
▁Born	-10.6764
▁Winter	-10.6765
▁Clare	-10.678
▁Bar	-10.6781
▁wreak	-10.6784
▁literar	-10.6786
▁increasing	-10.679
▁weapons	-10.6791
▁Kit	-10.6793
▁dress	-10.6796
▁continu	-10.6799
▁Adams	-10.6805
▁worth	-10.6827
▁kidnaps	-10.6835
▁miss	-10.6841
▁higher	-10.6841
▁disappear	-10.6843
▁2014	-10.6844
▁1972	-10.6847
▁ambitions	-10.6865
▁zombies	-10.6867
▁Marc	-10.6869
▁Netflix	-10.6881
▁bed	-10.6884
▁north	-10.6885
▁Gene	-10.6885
▁hour	-10.6905
▁examination	-10.6909
Christian	-10.6912
Eddie	-10.6916
Naomi	-10.6917
▁religion	-10.6917
▁casino	-10.6917
▁sweetheart	-10.6924
▁standing	-10.6924
▁closes	-10.6924
▁tournament	-10.6926
▁ticket	-10.6928
▁taste	-10.6931
▁shark	-10.6933
▁possession	-10.6934
▁du	-10.6938
so	-10.6939
▁Roger	-10.6942
▁retell	-10.6956
▁Sp	-10.6958
ou	-10.6967
▁monsters	-10.6967
▁repair	-10.6974
ain	-10.6978
talking	-10.6982
▁climb	-10.6987
▁Haunt	-10.6993
▁Pol	-10.6994
▁escalat	-10.7009
▁ties	-10.7018
▁Ana	-10.7029
▁guardian	-10.7037
▁wood	-10.7044
Lee	-10.7044
▁Pitt	-10.7048
▁Of	-10.7061
▁performances	-10.7068
▁marrie	-10.7069
Juliann	-10.7073
▁Buck	-10.7073
▁patriarch	-10.7083
bout	-10.7088
hand	-10.7094
▁sketch	-10.7097
▁Unfortunately	-10.7106
▁Skarsgård	-10.7106
▁uncanny	-10.7106
▁siege	-10.7106
▁Dracula	-10.7106
▁abroad	-10.7106
▁NASA	-10.7106
▁Hitler	-10.7106
▁December	-10.7106
▁Minister	-10.7106
Lionsgate	-10.7107
▁havoc	-10.7107
▁Everything	-10.7107
▁deranged	-10.7107
▁Lynch	-10.7107
▁Vista	-10.7107
▁mayhem	-10.7107
▁reflect	-10.7107
▁Elena	-10.7107
▁heartwarming	-10.7107
▁countries	-10.7107
▁mystical	-10.7107
▁Norway	-10.7107
▁Atlanta	-10.7107
▁development	-10.7107
▁Evelyn	-10.7107
▁suspenseful	-10.7108
▁Mitch	-10.7108
▁brash	-10.7108
▁false	-10.7109
▁devastated	-10.7109
lavish	-10.7111
▁witty	-10.7111
▁1995	-10.7111
▁malevolent	-10.7111
Brien	-10.7111
▁fifty	-10.7112
▁poverty	-10.7115
▁Reynolds	-10.7115
▁Sidney	-10.7115
▁III	-10.7116
▁spies	-10.7116
▁Enter	-10.7116
▁27	-10.7117
▁reeling	-10.7118
▁analyst	-10.7119
▁millionaire	-10.7122
▁Eight	-10.7122
▁attractive	-10.7122
▁accompanie	-10.7123
▁Barnes	-10.7123
▁airport	-10.7124
▁Sullivan	-10.7125
▁Richardson	-10.7125
▁intersect	-10.7125
▁Flynn	-10.7126
▁invitation	-10.7127
ailing	-10.7127
▁Cox	-10.7129
▁similar	-10.7129
▁superheroes	-10.7132
▁castle	-10.7133
▁Ge	-10.7133
▁Cal	-10.7134
▁NYPD	-10.7135
▁July	-10.7135
▁Castle	-10.7135
▁Robbie	-10.7136
▁possessed	-10.7137
▁solo	-10.7137
▁color	-10.7138
eductive	-10.7138
▁mini	-10.7141
▁Hoffman	-10.7144
▁Neeson	-10.7145
▁En	-10.7148
▁Independent	-10.7149
▁Lara	-10.7152
▁mentally	-10.7153
landestine	-10.7155
▁Juan	-10.7156
▁Quinn	-10.7157
▁Kidman	-10.7169
▁Queens	-10.7172
▁active	-10.7186
▁insist	-10.7186
▁Chloe	-10.7186
▁Hopkins	-10.7186
Keith	-10.719
▁Mara	-10.7191
▁Bryan	-10.7194
bent	-10.7195
husband	-10.7196
▁Seth	-10.7196
▁playful	-10.7206
▁Han	-10.7206
▁gathering	-10.7207
▁Sandler	-10.7207
▁Logan	-10.7208
▁believed	-10.7213
▁Harrison	-10.7217
▁defy	-10.7219
▁Ne	-10.722
▁origin	-10.7226
▁hatch	-10.7226
▁Dom	-10.7227
▁fu	-10.723
ible	-10.7233
▁seasons	-10.7234
(	-10.7246
▁roommates	-10.7257
▁juggl	-10.7265
▁Belle	-10.7268
▁comical	-10.7269
▁hate	-10.7276
▁couldn	-10.7281
▁Sir	-10.7285
▁simpl	-10.7285
▁Book	-10.7293
▁row	-10.7294
▁script	-10.7296
▁emerges	-10.7299
▁feud	-10.7307
▁closed	-10.731
▁hopeless	-10.7319
▁skill	-10.7334
▁Indiana	-10.7348
▁survived	-10.735
▁ending	-10.7372
ice	-10.7372
▁officials	-10.7373
▁haunt	-10.7375
▁homes	-10.7377
▁port	-10.7381
tz	-10.7387
▁1976	-10.7396
▁1985	-10.7407
▁allow	-10.741
nny	-10.7412
▁Gi	-10.7417
▁2010	-10.7419
▁recruite	-10.7422
▁god	-10.743
Connell	-10.7432
▁Wind	-10.7437
▁careers	-10.7439
▁receiv	-10.744
▁elephant	-10.7463
▁masterpiece	-10.7464
▁transition	-10.7465
Stephen	-10.7466
Walt	-10.7467
loving	-10.7467
Nicholas	-10.7472
Aaron	-10.7472
▁blockbuster	-10.7473
▁acts	-10.7475
Sean	-10.7476
Vincent	-10.7476
▁window	-10.7477
ad	-10.7478
▁meteor	-10.7481
▁pirate	-10.7482
▁passage	-10.7484
▁wander	-10.7486
▁succeed	-10.7488
▁wave	-10.7492
▁actions	-10.7502
▁unfold	-10.7509
making	-10.7511
▁Down	-10.7513
extended	-10.7516
ridden	-10.7519
▁doctors	-10.752
▁wasn	-10.753
▁bo	-10.7531
deral	-10.7533
▁intern	-10.7533
ov	-10.7538
▁fix	-10.7538
▁Forces	-10.7539
▁Lauren	-10.7546
▁chronicl	-10.7546
▁thrill	-10.7551
crossed	-10.757
hi	-10.7574
cop	-10.7577
▁mark	-10.7583
▁kick	-10.7586
▁Water	-10.7587
▁riot	-10.7588
▁Roll	-10.7589
med	-10.7598
▁Revolution	-10.7605
Y	-10.761
Christin	-10.761
searches	-10.7611
▁promote	-10.7623
▁arrange	-10.763
▁Brit	-10.7639
▁respective	-10.7644
▁alcohol	-10.7647
▁trials	-10.7654
▁jewel	-10.7658
▁Hu	-10.7659
▁grant	-10.7662
▁Crawford	-10.7662
▁Emperor	-10.7662
▁mogul	-10.7662
▁territory	-10.7662
▁tribulations	-10.7662
▁unflinching	-10.7662
▁unsuspecting	-10.7662
▁Kansas	-10.7662
▁Michigan	-10.7662
▁thirteen	-10.7662
▁Until	-10.7662
▁vengeful	-10.7662
▁absence	-10.7662
▁1971	-10.7662
▁disorder	-10.7662
▁Spider	-10.7662
▁scholarship	-10.7662
▁definitive	-10.7662
▁intricate	-10.7662
▁fantasies	-10.7663
▁unearth	-10.7663
▁cynical	-10.7663
▁dawn	-10.7663
▁persuade	-10.7663
▁Everyone	-10.7663
▁eternal	-10.7664
▁Created	-10.7665
▁inventive	-10.7665
▁enforcer	-10.7666
▁list	-10.7666
▁comfortable	-10.7667
▁wrestling	-10.7668
▁Bennett	-10.7668
▁satirical	-10.7668
▁experiencing	-10.7669
▁popularity	-10.767
▁Khan	-10.767
▁pact	-10.767
▁tennis	-10.7671
▁Dawson	-10.7671
▁Women	-10.7671
▁Canada	-10.7671
▁apprentice	-10.7672
▁tyrann	-10.7672
▁2000	-10.7672
▁attitude	-10.7674
▁Reid	-10.7674
▁psychologist	-10.7674
▁ghosts	-10.7675
▁Troy	-10.7676
▁Forum	-10.7676
▁filmmaking	-10.7677
der	-10.7677
▁lone	-10.7677
▁harbor	-10.7678
▁Liu	-10.7678
▁reconcil	-10.7678
ki	-10.768
▁acceptance	-10.7681
▁wives	-10.7682
▁route	-10.7683
▁cars	-10.7685
▁hacker	-10.7686
▁suffered	-10.7686
▁Short	-10.7687
▁swor	-10.7689
▁commander	-10.7689
▁feet	-10.769
▁demanding	-10.7691
▁recording	-10.7691
▁Justice	-10.7693
▁Chile	-10.7693
▁Nora	-10.7696
ities	-10.7697
".	-10.7699
▁Shot	-10.77
▁busy	-10.7701
▁bestsell	-10.7702
▁nerd	-10.7702
▁Watson	-10.7703
▁mythical	-10.7703
▁display	-10.7707
▁Erik	-10.7708
▁DEA	-10.7708
▁Friday	-10.7708
▁mechanic	-10.7711
▁tender	-10.7713
▁policeman	-10.7714
▁unknowing	-10.7714
▁Apple	-10.7716
▁Lena	-10.7716
▁breed	-10.7716
▁terrorism	-10.7716
▁cursed	-10.7718
▁Stiller	-10.7723
▁griev	-10.7726
style	-10.7729
▁opera	-10.773
ravaged	-10.7732
▁scale	-10.7733
▁fend	-10.7734
▁Harvey	-10.7736
▁Stanley	-10.7737
▁sick	-10.7741
▁Sydney	-10.7746
▁announces	-10.7747
▁Cohen	-10.7747
▁grisl	-10.7757
▁Depp	-10.7757
▁Old	-10.776
▁mayor	-10.776
▁Judy	-10.7761
▁trap	-10.7761
▁adventurer	-10.7767
▁darker	-10.7775
▁Light	-10.7779
▁Allison	-10.778
▁revelations	-10.7781
▁flying	-10.7784
most	-10.7784
▁tourists	-10.7791
eval	-10.7794
loses	-10.7795
▁po	-10.7799
▁bridge	-10.7807
70	-10.7812
▁hearing	-10.7815
▁injure	-10.7815
book	-10.7816
▁emerge	-10.7822
▁perfectly	-10.7829
over	-10.7832
▁Murder	-10.7833
luck	-10.7834
back	-10.7843
▁tape	-10.7843
N	-10.7846
ding	-10.7852
▁spa	-10.7863
famous	-10.7875
▁rescued	-10.7878
rie	-10.7886
skilled	-10.7888
▁Dominic	-10.7894
▁Yu	-10.7899
▁invade	-10.7902
▁hook	-10.7906
▁thinking	-10.7915
▁teache	-10.7917
▁tackle	-10.7921
▁bound	-10.7933
▁equal	-10.7954
▁manages	-10.7965
▁40-	-10.7965
▁Vi	-10.7966
▁orders	-10.7971
▁2008	-10.7982
▁2001	-10.7983
▁1973	-10.7985
▁2019	-10.7986
▁Sister	-10.7992
▁Bad	-10.7992
kin	-10.7998
▁mo	-10.8001
death	-10.8002
▁spirits	-10.8002
▁Power	-10.8011
break	-10.8017
until	-10.8034
▁institution	-10.8048
▁submarine	-10.805
▁Je	-10.8052
Kim	-10.8056
Russell	-10.8059
Patrick	-10.8059
Bruce	-10.806
▁wizard	-10.806
Alexander	-10.806
Dylan	-10.8061
Mary	-10.8066
▁diamond	-10.8066
▁convention	-10.8068
hill	-10.8069
▁slowl	-10.807
Natalie	-10.807
if	-10.8071
▁suspicion	-10.8073
▁misfit	-10.8074
▁cartel	-10.8078
▁Mari	-10.8079
▁ruin	-10.8079
▁doll	-10.8081
▁mobster	-10.8083
▁dragon	-10.8088
▁zone	-10.8088
rious	-10.809
▁races	-10.809
▁schem	-10.8092
ugh	-10.8103
▁Project	-10.8113
▁panic	-10.812
▁Jen	-10.8125
fuel	-10.8126
▁Ang	-10.8139
▁traditions	-10.8147
illian	-10.8148
▁provinc	-10.815
▁nightmares	-10.8164
▁sh	-10.8165
▁Ea	-10.8172
▁check	-10.8175
▁Ram	-10.8182
▁seat	-10.8183
▁numbers	-10.8185
▁month	-10.8202
▁depict	-10.8205
▁tower	-10.8225
▁Hero	-10.8227
▁crown	-10.8228
▁jealous	-10.823
▁hijack	-10.8234
▁disco	-10.8235
11-	-10.8239
▁Latin	-10.824
▁drunk	-10.8242
ek	-10.8245
▁suggest	-10.8247
▁Strange	-10.8247
Zeitgeis	-10.825
▁Arizona	-10.825
▁Depression	-10.825
▁Sylvia	-10.825
▁innovative	-10.825
▁intimacy	-10.825
▁nefarious	-10.825
▁underbelly	-10.825
▁Eisenberg	-10.825
▁Square	-10.825
▁Houston	-10.825
▁bartender	-10.825
▁imaginative	-10.825
▁sidekick	-10.825
▁1979	-10.825
▁exhilarating	-10.825
▁Simmons	-10.825
▁climate	-10.825
▁Jenkins	-10.825
▁cocaine	-10.825
▁hottest	-10.825
▁Ridley	-10.825
▁compassionate	-10.825
▁Village	-10.825
▁psychotic	-10.825
▁headstrong	-10.825
▁separation	-10.825
▁Gleeson	-10.8251
▁Thailand	-10.8251
▁2016	-10.8251
▁poker	-10.8251
▁unhappy	-10.8251
▁devotion	-10.8252
▁convent	-10.8252
▁counselor	-10.8252
▁ITV	-10.8252
▁sanity	-10.8252
▁biological	-10.8252
▁coveted	-10.8253
▁everywhere	-10.8253
▁throne	-10.8253
▁nobody	-10.8254
▁untold	-10.8254
room	-10.8254
▁Patel	-10.8254
▁Midwestern	-10.8254
▁spoiled	-10.8255
▁enroll	-10.8256
▁Porter	-10.8256
▁emergency	-10.8257
▁philosophy	-10.8258
▁Poland	-10.8258
▁severe	-10.8258
▁tree	-10.8258
▁paint	-10.8258
▁diplomat	-10.8258
▁Conan	-10.8259
▁Duncan	-10.8259
▁channel	-10.8259
▁League	-10.8259
▁Gyllenhaal	-10.8259
▁proud	-10.826
▁Calvin	-10.826
▁eliminate	-10.8261
▁deaf	-10.8261
▁grandson	-10.8263
▁sheep	-10.8263
▁disturbed	-10.8263
▁broadcast	-10.8264
▁hustler	-10.8264
▁entity	-10.8265
▁toxic	-10.8265
▁trafficking	-10.8266
▁concerned	-10.8266
sworth	-10.8267
▁superpowers	-10.8268
▁Native	-10.8268
▁lens	-10.8268
nominated	-10.8269
▁Chelsea	-10.8271
▁Weinstein	-10.8271
▁contend	-10.8273
▁privileged	-10.8273
▁Farrell	-10.8275
▁Driver	-10.8279
▁charts	-10.8281
verge	-10.8281
▁Courtney	-10.8282
▁recognize	-10.8282
▁Wallace	-10.8283
▁Struggl	-10.8283
▁kicked	-10.8286
▁Cla	-10.8289
▁Jonas	-10.8289
▁aggressive	-10.8291
▁hanging	-10.8292
▁Crowe	-10.8292
▁Alfred	-10.8292
▁polar	-10.8293
▁Sweet	-10.8293
▁Weaver	-10.8293
▁Phoenix	-10.8294
▁Eastwood	-10.8295
▁medi	-10.8296
▁Tina	-10.8297
▁stops	-10.8297
▁thugs	-10.83
▁weather	-10.8301
▁Cruise	-10.8305
▁builds	-10.8305
▁ranks	-10.8307
▁da	-10.8307
▁mixed	-10.8313
imaginary	-10.8314
▁carrie	-10.8314
▁Jews	-10.8317
▁Crime	-10.8319
▁Fair	-10.8319
▁Mer	-10.8321
▁Reeves	-10.8321
▁gentle	-10.8326
▁Lance	-10.8327
▁thoughts	-10.8328
only	-10.8329
▁Team	-10.8331
▁Lola	-10.8334
▁recall	-10.834
▁Joshua	-10.834
▁racial	-10.8345
han	-10.8345
▁froze	-10.8349
ot	-10.8351
▁Heart	-10.8354
▁understanding	-10.8354
▁Ju	-10.8356
▁mouse	-10.8356
▁sexually	-10.8362
Carey	-10.8363
▁Cash	-10.8364
▁horrors	-10.8365
▁prominen	-10.8366
▁feared	-10.8372
▁lessons	-10.8377
▁received	-10.8385
▁customers	-10.8387
▁connections	-10.8396
▁transformation	-10.8398
our	-10.84
▁tropic	-10.8408
▁provid	-10.8411
▁47	-10.8415
yard	-10.8415
Twentie	-10.842
▁Plum	-10.8422
▁cheat	-10.8424
▁Sally	-10.8424
▁imagine	-10.8429
girl	-10.843
▁theft	-10.843
▁Dakota	-10.8432
▁Natalie	-10.8443
▁Rais	-10.8455
▁messages	-10.8461
▁hosts	-10.8462
▁Naomi	-10.8467
án	-10.8471
▁Ocean	-10.8472
mund	-10.8493
▁Liam	-10.8495
▁politicians	-10.8505
▁Pu	-10.8511
▁Olivia	-10.8514
▁apocalyptic	-10.8515
80	-10.8515
▁refugees	-10.8518
00	-10.8518
▁await	-10.854
jo	-10.8544
▁teachers	-10.8569
▁Ni	-10.8579
Kin	-10.8581
▁dare	-10.8582
▁grapple	-10.859
▁wo	-10.8591
▁Dana	-10.8597
▁Ar	-10.8599
▁1975	-10.8599
▁Devil	-10.8601
▁1987	-10.8609
▁Dec	-10.861
▁1962	-10.8611
di	-10.8612
▁Seven	-10.8619
▁predict	-10.8624
▁Newly	-10.8632
▁outlaws	-10.8634
▁wonders	-10.8637
▁pr	-10.8641
▁uneas	-10.8641
plays	-10.8641
▁sail	-10.8646
collar	-10.8649
▁expos	-10.8655
Jeff	-10.8657
▁fo	-10.8661
▁Wil	-10.8664
▁regular	-10.8667
▁intrigu	-10.8668
▁hap	-10.8671
Mike	-10.8676
songwriter	-10.8682
Joseph	-10.8683
▁guru	-10.8684
▁destination	-10.8684
Taylor	-10.8685
Dakota	-10.8685
▁unlock	-10.8686
Nicole	-10.8686
▁Silver	-10.8687
ol	-10.8688
Lucy	-10.8689
▁failure	-10.8691
▁intellectual	-10.8693
▁circle	-10.8696
▁grade	-10.8696
▁roommate	-10.8699
▁thousand	-10.8699
▁wa	-10.8703
▁ritual	-10.8706
▁Ash	-10.8707
▁groom	-10.8707
▁paper	-10.8708
▁tension	-10.8709
▁wound	-10.8709
▁corner	-10.871
▁dancers	-10.8721
ult	-10.8723
dia	-10.8731
▁Ko	-10.8731
▁Ward	-10.8731
▁idol	-10.8734
▁symbol	-10.8738
▁troubles	-10.8741
▁Fac	-10.8742
▁Deb	-10.8744
Buen	-10.8747
zel	-10.8747
▁string	-10.8772
▁shadows	-10.8772
1	-10.8776
▁revive	-10.8781
▁mate	-10.8783
▁surprises	-10.8784
hief	-10.8785
▁wits	-10.8786
▁retire	-10.8794
▁hall	-10.8795
▁rag	-10.8824
▁ro	-10.8836
▁reclaim	-10.8838
ney	-10.8841
▁Br	-10.8853
▁la	-10.8855
▁subsequent	-10.8856
▁peril	-10.8867
ë	-10.8875
▁Taliban	-10.8875
▁catastrophic	-10.8875
▁honeymoon	-10.8875
▁uncharted	-10.8875
▁oppressive	-10.8875
▁pianist	-10.8875
▁1978	-10.8875
▁Channel	-10.8875
▁breathtaking	-10.8875
▁renegade	-10.8875
▁mismatche	-10.8875
▁Enterprise	-10.8875
▁Resistance	-10.8875
▁Tennant	-10.8875
▁inseparable	-10.8875
▁unforgiving	-10.8875
▁adolescence	-10.8875
▁physician	-10.8875
▁disabled	-10.8875
▁Olsen	-10.8875
▁explosion	-10.8875
▁Gotham	-10.8875
▁neurotic	-10.8875
▁Uncle	-10.8875
▁kung	-10.8875
▁plastic	-10.8875
▁Arm	-10.8875
▁simultaneous	-10.8875
▁Jesus	-10.8876
▁request	-10.8876
▁forensic	-10.8876
▁spoof	-10.8876
▁2018	-10.8876
▁smash	-10.8876
▁clever	-10.8876
▁spree	-10.8876
▁stirring	-10.8877
▁desperation	-10.8877
▁outpost	-10.8877
▁Way	-10.8877
▁2005	-10.8878
▁farmhouse	-10.8878
▁begun	-10.8878
▁cunning	-10.8878
▁1989	-10.8878
▁commitment	-10.8879
▁infant	-10.8879
▁abruptly	-10.888
▁competing	-10.8881
▁dozen	-10.8881
▁soap	-10.8882
▁Ava	-10.8882
▁traffic	-10.8882
▁Superman	-10.8883
▁engage	-10.8883
▁flock	-10.8884
▁universal	-10.8884
▁AMC	-10.8884
▁Count	-10.8885
▁Tehran	-10.8885
▁Beatles	-10.8885
▁quarantine	-10.8885
▁Everett	-10.8885
▁Corporation	-10.8885
▁reaction	-10.8885
▁tortured	-10.8885
▁rapper	-10.8886
▁2003	-10.8886
▁Tucker	-10.8886
▁Nixon	-10.8886
▁Back	-10.8886
▁pride	-10.8886
▁showdown	-10.8887
▁advertising	-10.8888
▁Series	-10.8889
▁Davies	-10.8889
▁prolific	-10.8889
▁Pope	-10.8889
▁shaken	-10.889
▁kiss	-10.8891
▁prompt	-10.8893
▁Child	-10.8893
▁Dern	-10.8893
▁captivating	-10.8895
▁reward	-10.8895
▁impress	-10.8895
▁Ferrell	-10.8897
that	-10.8897
▁Christine	-10.8897
▁Cannes	-10.8899
▁conduct	-10.89
▁Asia	-10.8902
▁handle	-10.8903
gotten	-10.8905
▁highway	-10.8906
▁Juliet	-10.8907
▁Return	-10.8909
▁points	-10.8911
▁Town	-10.8912
▁geek	-10.8912
▁Kane	-10.8914
▁billion	-10.8915
▁Jules	-10.8915
▁wounded	-10.892
▁tangle	-10.892
▁Pablo	-10.8921
▁di	-10.8921
▁Myers	-10.8926
▁smuggling	-10.8926
▁label	-10.8929
▁stock	-10.8929
Ewan	-10.8931
▁faithful	-10.8932
▁nice	-10.8932
▁unfi	-10.8933
▁McGregor	-10.8934
extremely	-10.8935
▁Vince	-10.8939
▁adorabl	-10.894
▁brand	-10.8945
▁500	-10.8946
▁wry	-10.8946
▁Grey	-10.8946
▁Pacino	-10.8946
▁Battle	-10.8948
▁Regina	-10.8949
▁Curtis	-10.8949
▁Tracy	-10.895
alactic	-10.8951
▁define	-10.8952
▁rape	-10.8957
▁lo	-10.8958
▁destructive	-10.8959
▁Ri	-10.8959
▁consist	-10.8961
▁ideal	-10.8964
▁Ricky	-10.8965
▁warm	-10.8968
▁Affleck	-10.897
▁Pe	-10.8979
▁my	-10.8984
▁intentions	-10.8987
▁weaves	-10.8993
▁suspected	-10.8993
▁Sep	-10.8994
bel	-10.9006
▁pits	-10.9009
▁Zach	-10.902
▁bi	-10.9028
▁candid	-10.9029
▁doom	-10.9031
▁Moss	-10.9041
▁Daniels	-10.9044
discovery	-10.9045
▁union	-10.9047
▁internationally	-10.9061
▁restless	-10.9071
▁realiz	-10.9076
Joe	-10.9083
▁houses	-10.9088
▁replace	-10.9088
▁tow	-10.9094
▁bars	-10.9097
▁treat	-10.9099
▁sit	-10.9109
▁none	-10.911
▁jumps	-10.9114
▁Stein	-10.9116
ged	-10.9121
imension	-10.9144
▁wall	-10.9147
▁unite	-10.9149
▁Top	-10.915
▁Whi	-10.9155
▁Jeremy	-10.9156
▁Bean	-10.9159
▁heights	-10.9164
term	-10.9172
▁classmates	-10.9183
ends	-10.9185
▁90	-10.9185
▁angel	-10.919
▁Hop	-10.9194
▁expect	-10.9195
▁li	-10.9202
▁nor	-10.9211
▁bears	-10.9212
▁Ki	-10.9219
bsessed	-10.9221
▁Mende	-10.9229
board	-10.9233
▁Join	-10.924
▁legends	-10.9244
home	-10.9261
▁le	-10.9267
▁1991	-10.9272
20	-10.9272
▁2009	-10.9273
▁2011	-10.9273
▁hyper	-10.928
▁roles	-10.9281
▁Iron	-10.9285
▁shake	-10.9287
att	-10.9289
▁enchant	-10.929
▁Deput	-10.9298
will	-10.9304
▁farmers	-10.9316
–	-10.932
▁fascinati	-10.9325
perfect	-10.9326
▁Saint	-10.9326
lands	-10.9334
▁Sebasti	-10.9337
▁warehouse	-10.9339
▁publisher	-10.9339
Adrian	-10.9343
▁Tour	-10.9343
▁Bel	-10.9344
Eric	-10.9347
Morgan	-10.9347
Dave	-10.9349
Jacob	-10.935
Charlotte	-10.935
ess	-10.9351
Juliette	-10.9351
unseen	-10.9351
▁manag	-10.9352
▁resist	-10.9352
security	-10.9354
five	-10.9356
ball	-10.9357
kind	-10.9359
▁dynamic	-10.9362
▁Ranger	-10.9365
▁per	-10.9365
▁employer	-10.937
▁Woods	-10.937
que	-10.9371
Men	-10.9372
pa	-10.9374
▁operatives	-10.9377
au	-10.9385
▁warning	-10.9389
▁knowing	-10.9401
▁saved	-10.9401
▁Nine	-10.9404
▁rent	-10.9407
▁sp	-10.9409
▁psychiatri	-10.9411
▁ne	-10.9417
▁bu	-10.9419
▁schooler	-10.9422
▁Single	-10.9422
▁Fi	-10.9425
▁haven	-10.9426
▁Wel	-10.9426
Z	-10.9432
che	-10.9446
▁lovabl	-10.9451
▁strain	-10.9452
▁issue	-10.9452
▁sights	-10.9454
▁Hung	-10.9455
▁prim	-10.9458
▁Kay	-10.9464
ups	-10.9467
▁friendly	-10.9472
▁j	-10.9476
▁believ	-10.9479
▁Con	-10.9483
tt	-10.9486
▁pitch	-10.949
▁delight	-10.9492
▁nightmar	-10.9493
game	-10.9496
▁villa	-10.9498
▁resurrect	-10.9504
wing	-10.9512
▁Look	-10.9521
▁execute	-10.9523
▁Lynn	-10.9527
▁schemes	-10.953
▁Republic	-10.953
Rosa	-10.9533
▁raid	-10.9534
▁Pearl	-10.9539
▁Apollo	-10.9542
François	-10.9542
▁Barcelona	-10.9542
▁Intelligence	-10.9542
▁Memphis	-10.9542
▁Monaghan	-10.9542
▁Monroe	-10.9542
▁Poehler	-10.9542
▁Public	-10.9542
▁amnesia	-10.9542
▁impoverish	-10.9542
▁numerous	-10.9542
▁Beautiful	-10.9542
▁Frankenstein	-10.9542
▁Kendrick	-10.9542
▁unruly	-10.9542
▁Bateman	-10.9542
▁Gibney	-10.9542
▁excitement	-10.9542
▁maximum	-10.9542
▁Cleveland	-10.9542
▁labyrinth	-10.9542
▁warfare	-10.9542
▁rebellion	-10.9542
▁mockumentary	-10.9542
▁Pearce	-10.9542
▁communities	-10.9542
▁PBS	-10.9542
▁sugar	-10.9542
▁1994	-10.9542
▁Junior	-10.9542
▁eleven	-10.9542
▁identities	-10.9542
▁eldest	-10.9542
▁1992	-10.9542
▁1967	-10.9542
▁Dickens	-10.9542
▁meditation	-10.9542
▁punishment	-10.9542
Freestyle	-10.9542
▁supermarket	-10.9542
▁prosecutor	-10.9542
▁heavily	-10.9543
▁Mafia	-10.9543
▁surgery	-10.9543
▁Elba	-10.9543
▁Buckley	-10.9543
▁wasteland	-10.9543
▁Vienna	-10.9543
▁revered	-10.9543
▁involvement	-10.9543
▁Coast	-10.9543
▁critical	-10.9543
▁blonde	-10.9544
▁stunned	-10.9544
▁Kingsley	-10.9544
▁underdog	-10.9544
▁Alps	-10.9544
▁Luther	-10.9544
▁stake	-10.9544
▁uprising	-10.9545
▁Suddenly	-10.9545
▁Yang	-10.9545
▁sought	-10.9545
▁1942	-10.9546
▁poetry	-10.9548
▁Revere	-10.9548
▁Wong	-10.9549
▁footsteps	-10.955
▁frequent	-10.955
▁inheritance	-10.9551
▁industrial	-10.9551
▁rehab	-10.9552
▁twice	-10.9552
▁Wayans	-10.9552
▁bottom	-10.9552
▁Cruz	-10.9552
▁Potter	-10.9552
▁seventeen	-10.9553
▁instructor	-10.9553
▁wolf	-10.9554
▁apocalypse	-10.9554
▁Toro	-10.9555
▁injury	-10.9556
▁Cuban	-10.9557
▁Rise	-10.9558
▁Hood	-10.9558
▁Today	-10.9558
▁said	-10.9559
▁Claus	-10.956
▁seduced	-10.956
▁Butler	-10.9561
▁complications	-10.9561
▁upbringing	-10.9562
▁gas	-10.9564
▁Audrey	-10.9565
▁Shirley	-10.9565
▁newborn	-10.9565
▁feminist	-10.9565
▁Marianne	-10.9566
Jane	-10.9566
▁Collette	-10.9567
▁slight	-10.9567
▁Money	-10.9568
▁establishment	-10.9568
▁pit	-10.9568
▁entertaining	-10.9568
▁betrayed	-10.9569
▁fell	-10.957
▁Vaughn	-10.957
▁Mason	-10.9571
don	-10.9572
▁attendant	-10.9572
▁Left	-10.9572
▁Fly	-10.9573
▁roller	-10.9574
▁Betty	-10.9574
▁Ip	-10.9577
▁Blair	-10.9578
▁produce	-10.9579
▁app	-10.9581
▁Shaun	-10.9583
ith	-10.9584
▁heartbreaking	-10.9584
ane	-10.9585
▁map	-10.9585
▁Call	-10.9586
▁ongoing	-10.9587
▁Nor	-10.959
▁recovery	-10.9591
▁Brody	-10.9592
▁hungry	-10.9593
▁hardened	-10.9593
▁Sid	-10.9593
▁Rush	-10.9595
lly	-10.9602
▁Stallone	-10.9604
▁pa	-10.9606
▁Margot	-10.9608
▁Hughes	-10.9611
▁Pegg	-10.9615
▁Fiennes	-10.9617
▁Costner	-10.9617
li	-10.9623
▁Brandon	-10.9625
▁cab	-10.9626
▁Antonio	-10.9626
unny	-10.9629
▁Sundance	-10.963
▁climber	-10.9631
▁approaching	-10.9636
▁familiar	-10.9638
▁realm	-10.9641
▁al	-10.9644
▁stuff	-10.9648
▁west	-10.965
burn	-10.9657
▁Bridge	-10.9657
▁roots	-10.966
Rob	-10.9668
▁Nash	-10.967
▁Patricia	-10.9671
▁Bush	-10.9678
▁backgrounds	-10.9686
▁afterlife	-10.9689
shore	-10.9694
Theo	-10.9701
▁improve	-10.9704
▁Noah	-10.971
▁conversations	-10.971
▁Gu	-10.9717
▁Hard	-10.9718
▁Greene	-10.972
fifth	-10.9723
▁Fa	-10.9729
▁Toby	-10.9729
▁checks	-10.9731
lia	-10.9736
▁Juliette	-10.9739
Jared	-10.9744
▁Post	-10.9747
▁Car	-10.9752
▁threats	-10.9752
▁fine	-10.9757
ped	-10.9757
ill	-10.9757
etween	-10.9757
▁dive	-10.9757
▁mostly	-10.9772
▁wars	-10.9774
mi	-10.9778
▁deadlie	-10.978
▁heal	-10.9791
egian	-10.9793
▁Broke	-10.9804
▁Face	-10.9813
▁Sch	-10.9813
boyfriend	-10.9816
▁quit	-10.9816
Ana	-10.9818
tribute	-10.9818
ag	-10.9824
raid	-10.9829
▁Leon	-10.9831
▁Ga	-10.9832
served	-10.9832
▁Stark	-10.9848
▁appearances	-10.9852
▁Katherine	-10.9857
▁cycle	-10.9861
▁bonds	-10.9868
Brian	-10.9901
▁Northwest	-10.9917
▁split	-10.9921
▁Focus	-10.9936
bed	-10.9939
▁jungles	-10.9944
▁Rescue	-10.9945
help	-10.9954
▁broker	-10.9971
▁2004	-10.9983
▁1981	-10.9994
▁Satan	-11.0003
face	-11.0006
ased	-11.0006
▁landing	-11.0008
▁Yorkers	-11.0013
Louis	-11.0015
ba	-11.0023
Screen	-11.0026
keeping	-11.0026
▁aside	-11.0029
Helen	-11.004
sky	-11.0046
▁diagnose	-11.0046
Black	-11.0046
Elle	-11.0048
▁captive	-11.005
profile	-11.0051
▁robber	-11.0052
▁refuse	-11.0052
▁Cam	-11.0055
▁nights	-11.0057
▁Fear	-11.0057
Harry	-11.0059
Jean	-11.006
▁Lost	-11.0061
▁academic	-11.0064
▁Key	-11.0068
▁bullet	-11.0069
Cage	-11.0073
half	-11.0073
Jenna	-11.0074
historic	-11.0076
▁mutant	-11.0077
▁conviction	-11.0077
▁conversation	-11.0078
▁passions	-11.0079
▁passenger	-11.0079
▁difference	-11.008
▁stunt	-11.0082
rapped	-11.0082
▁partying	-11.0083
▁superior	-11.0084
▁affection	-11.0084
▁impro	-11.0086
▁Spring	-11.0087
▁developer	-11.0089
▁Live	-11.0091
▁arch	-11.0094
Steven	-11.0097
▁cul	-11.0102
ut	-11.0104
▁neo	-11.0112
▁press	-11.0112
▁theme	-11.0115
▁pai	-11.0117
▁cameras	-11.0121
▁200	-11.0123
Alan	-11.0127
▁experiments	-11.0132
▁Wes	-11.0139
stone	-11.0141
▁embarking	-11.0141
▁Dublin	-11.0156
▁associate	-11.0157
▁experts	-11.0161
Ad	-11.0183
ether	-11.0184
F	-11.0193
▁object	-11.0204
Di	-11.0215
▁mythic	-11.0221
▁rumor	-11.0225
bo	-11.0227
standing	-11.0231
▁investigat	-11.0232
▁chances	-11.0238
▁unrest	-11.0243
▁examine	-11.0245
fu	-11.0246
▁Drive	-11.0247
▁Free	-11.025
▁piano	-11.0253
maker	-11.0255
mar	-11.0255
▁puppet	-11.0256
▁tabloid	-11.0256
▁Duplass	-11.0256
▁Fitzgerald	-11.0256
▁Lieutenant	-11.0256
▁Massachusetts	-11.0256
▁Moscow	-11.0256
▁amusement	-11.0256
▁diabolical	-11.0256
▁flamboyant	-11.0256
▁raucous	-11.0256
▁Nevada	-11.0256
▁meticulous	-11.0256
▁mutual	-11.0256
▁Sheridan	-11.0256
▁succumb	-11.0256
▁possibility	-11.0256
▁imminent	-11.0256
▁SEAL	-11.0256
Artisan	-11.0256
cliffe	-11.0256
▁1941	-11.0256
▁Gilbert	-11.0256
▁peasant	-11.0256
▁Janeiro	-11.0256
▁Chandler	-11.0256
▁Movement	-11.0256
▁Seventeen	-11.0256
▁decline	-11.0256
▁1977	-11.0256
▁obtain	-11.0256
▁stylish	-11.0256
▁2013	-11.0256
▁2015	-11.0257
▁playwright	-11.0257
▁depression	-11.0257
▁gym	-11.0257
▁adventurous	-11.0257
▁overbearing	-11.0257
▁Comedy	-11.0257
▁studies	-11.0257
▁Abbott	-11.0257
▁2024	-11.0257
▁operator	-11.0257
▁colony	-11.0257
▁fractured	-11.0257
▁Austen	-11.0257
▁2006	-11.0258
▁Richie	-11.0258
▁thwart	-11.0258
▁Country	-11.0258
▁manhunt	-11.0258
▁management	-11.0258
▁evade	-11.0258
▁2002	-11.0258
▁newlywed	-11.0259
▁Strong	-11.0259
▁Thirty	-11.0259
▁wipe	-11.0259
▁Irene	-11.0259
▁Ivy	-11.026
▁scandalous	-11.026
▁diagnosis	-11.026
▁biography	-11.0261
▁Burke	-11.0261
▁workplace	-11.0261
▁toughest	-11.0262
▁disgraced	-11.0263
▁backyard	-11.0263
▁cargo	-11.0264
▁Coleman	-11.0264
▁article	-11.0264
▁Randy	-11.0265
▁trek	-11.0265
▁prom	-11.0265
▁anxiety	-11.0266
▁aspirations	-11.0266
▁brutality	-11.0266
▁1996	-11.0266
▁Donna	-11.0266
▁hockey	-11.0267
▁Felix	-11.0267
▁Harrelson	-11.0267
▁Savage	-11.0267
▁division	-11.0267
▁conventional	-11.0268
▁voices	-11.0268
▁Sadie	-11.0268
▁promotion	-11.0268
▁inexperienced	-11.0269
▁flash	-11.0269
▁Sherman	-11.0269
▁Grammy	-11.027
▁monst	-11.027
▁inexplicably	-11.027
▁Heather	-11.027
▁conceal	-11.0271
Jodi	-11.0271
▁Otto	-11.0272
▁Mount	-11.0273
▁Palmer	-11.0274
▁Bosnia	-11.0275
▁somewhere	-11.0275
▁Agnes	-11.0276
▁Hayes	-11.0276
▁roof	-11.0277
▁burned	-11.028
▁October	-11.0281
▁upended	-11.0281
▁bedroom	-11.0281
▁Alejandro	-11.0281
▁Pakistani	-11.0281
De	-11.0282
▁Austria	-11.0282
▁burning	-11.0282
▁Cassie	-11.0282
▁finance	-11.0284
▁ego	-11.0284
▁slavery	-11.0284
▁Elvis	-11.0285
▁Bernard	-11.0285
▁granted	-11.0286
lan	-11.0287
marked	-11.0289
die	-11.0291
▁Baldwin	-11.0295
▁Hathaway	-11.0295
▁ch	-11.0298
▁Clara	-11.0299
▁Right	-11.0299
▁drawing	-11.03
▁alluring	-11.0301
▁seriously	-11.0302
▁persecut	-11.0303
▁urgent	-11.0303
ember	-11.0304
▁intertwined	-11.0306
▁raging	-11.0306
▁confident	-11.0309
▁distance	-11.031
▁Led	-11.0312
▁yearns	-11.0316
▁Why	-11.0316
▁Allan	-11.032
▁rancher	-11.032
▁healing	-11.0322
▁Crystal	-11.0323
▁Greta	-11.0325
▁intertwine	-11.0327
▁settled	-11.0329
▁loan	-11.0329
bi	-11.033
▁Ned	-11.0333
▁Q	-11.0337
▁according	-11.0344
▁formed	-11.0347
ational	-11.0348
▁suit	-11.035
▁Song	-11.0351
▁Vicky	-11.0352
witted	-11.0352
▁Arnold	-11.0352
port	-11.0353
▁truths	-11.0353
▁Hans	-11.0354
▁anticipated	-11.0354
ada	-11.0355
▁Ab	-11.0357
▁explode	-11.0362
▁Wahlberg	-11.0366
▁Stand	-11.0366
▁Sin	-11.037
▁trainer	-11.037
▁converge	-11.0373
An	-11.0375
▁banker	-11.0375
▁skin	-11.0378
▁launched	-11.0379
▁Derek	-11.038
breaking	-11.0381
▁Fran	-11.0382
beth	-11.0389
U	-11.0398
▁bosses	-11.04
▁Forest	-11.0405
▁beliefs	-11.0409
▁happening	-11.041
waiting	-11.041
▁athletes	-11.041
▁Lin	-11.0412
▁fur	-11.0416
▁stark	-11.0419
▁values	-11.042
▁Nolan	-11.0425
▁mourn	-11.043
▁23-	-11.0431
▁Jessie	-11.0438
Meli	-11.0438
▁halls	-11.0438
ee	-11.045
▁Aunt	-11.0452
▁Hot	-11.0452
▁arm	-11.0453
▁participate	-11.0453
▁su	-11.0456
ang	-11.0456
▁swing	-11.0457
▁socially	-11.0457
▁awaits	-11.0465
▁Janet	-11.0468
▁eating	-11.0476
▁trick	-11.0485
▁undertake	-11.0496
▁illustrate	-11.0498
▁clashe	-11.0498
▁reimagin	-11.0501
▁Rogers	-11.0502
▁folk	-11.0504
AIDS	-11.0504
▁Brazili	-11.0508
▁Inc	-11.0509
ake	-11.0509
▁André	-11.0512
▁Dee	-11.0525
arian	-11.0529
▁Run	-11.0532
▁Blood	-11.0534
▁Ally	-11.0539
▁locations	-11.0542
let	-11.0545
▁Barr	-11.055
mont	-11.0563
▁fac	-11.0563
▁confrontation	-11.0564
▁blur	-11.0575
▁ventures	-11.0578
▁Luna	-11.0579
▁celebrat	-11.0585
▁Nell	-11.059
▁round	-11.0592
▁reasons	-11.0594
▁Real	-11.0596
▁electric	-11.0597
▁cultures	-11.0597
▁toys	-11.06
▁Str	-11.0606
▁joys	-11.0608
▁costs	-11.0612
mong	-11.0616
▁pen	-11.0617
▁longing	-11.0617
▁Fe	-11.062
▁credit	-11.0621
▁Sky	-11.0624
▁oppos	-11.0642
▁Cape	-11.0646
eddy	-11.0656
▁card	-11.0657
avier	-11.0658
▁Bird	-11.0678
eager	-11.0685
▁Small	-11.0686
▁unemploy	-11.0696
edge	-11.07
enty	-11.0701
▁Bi	-11.0704
▁robots	-11.0717
▁invad	-11.0722
▁dystopia	-11.0737
drama	-11.074
how	-11.074
▁1997	-11.0743
▁Baby	-11.0743
▁Pro	-11.0743
▁Duri	-11.075
▁lively	-11.0753
▁("	-11.0754
▁Break	-11.0756
powered	-11.076
▁ones	-11.0761
▁twists	-11.0762
▁pieces	-11.0763
▁populat	-11.0764
Andrea	-11.0769
▁writes	-11.0774
Simon	-11.0776
▁mistake	-11.0779
een	-11.0779
thriller	-11.0787
▁Bear	-11.0794
▁Gr	-11.0808
stein	-11.0809
▁fighters	-11.082
▁breakthrough	-11.082
Kath	-11.0821
Gabriel	-11.0822
▁deceit	-11.0822
Dominic	-11.0823
Brendan	-11.0826
▁effect	-11.0828
Seth	-11.0829
▁alliance	-11.083
Jackson	-11.083
▁investigators	-11.0831
Toni	-11.0831
Connor	-11.0831
Bradley	-11.0832
Pierce	-11.0832
Maggie	-11.0832
Samantha	-11.0833
Benjamin	-11.0834
Noah	-11.0835
Jessie	-11.0835
▁pimp	-11.0836
Toby	-11.0837
▁subway	-11.0841
▁injur	-11.0846
▁principal	-11.0846
▁operations	-11.0846
▁customer	-11.085
▁ti	-11.0851
▁tourist	-11.0853
▁Pine	-11.0855
▁servant	-11.0855
camera	-11.086
circ	-11.0863
▁Follows	-11.0871
▁ho	-11.0876
produced	-11.0889
▁Ry	-11.089
▁likes	-11.0898
pless	-11.0902
▁names	-11.0903
▁Get	-11.0907
▁rec	-11.0907
▁Sur	-11.0914
▁Play	-11.0917
Jedi	-11.0917
▁dump	-11.0931
▁minute	-11.0932
ira	-11.0933
▁Kun	-11.0937
▁Cor	-11.0945
▁golf	-11.0946
▁grounds	-11.0949
llows	-11.095
rise	-11.0953
ook	-11.0956
entral	-11.0958
▁Port	-11.0959
▁wise	-11.0965
renown	-11.0972
▁sweep	-11.0975
hard	-11.0976
▁Jess	-11.0978
▁Jin	-11.0979
ably	-11.0982
▁futurist	-11.0982
▁heartbreak	-11.0983
▁blackmail	-11.099
▁auto	-11.0995
hire	-11.0997
▁aimless	-11.1003
▁Meg	-11.1008
0,000	-11.1008
▁unlike	-11.101
▁Ernest	-11.1011
3	-11.1015
▁Garden	-11.1016
ological	-11.1022
▁Marshal	-11.1022
▁prior	-11.1023
▁Violet	-11.1023
▁maj	-11.1023
▁sneak	-11.1024
▁Abi	-11.1024
▁Rod	-11.1024
▁Copenhagen	-11.1025
▁Coppola	-11.1025
▁Hitchcock	-11.1025
▁Holocaust	-11.1025
▁Tennessee	-11.1025
▁feisty	-11.1025
▁homicidal	-11.1025
▁incarcerated	-11.1025
▁lucrative	-11.1025
▁maverick	-11.1025
▁mercenaries	-11.1025
▁Gardner	-11.1025
▁Senator	-11.1025
▁asylum	-11.1025
▁platoon	-11.1025
▁Video	-11.1025
▁Bronx	-11.1025
▁matriarch	-11.1025
▁Wyoming	-11.1025
▁kitchen	-11.1025
▁solitude	-11.1025
▁Clouseau	-11.1025
▁audacious	-11.1025
▁confusion	-11.1025
▁surveillance	-11.1025
▁Squad	-11.1025
▁domineering	-11.1025
▁goodbye	-11.1025
▁advantage	-11.1025
▁Chapman	-11.1025
▁Goldwyn	-11.1025
▁Dutch	-11.1026
▁Robbins	-11.1026
▁consciousness	-11.1026
▁oddball	-11.1026
▁Jigsaw	-11.1026
▁journalism	-11.1026
▁forgiveness	-11.1026
▁bleak	-11.1026
▁Happy	-11.1026
▁soundtrack	-11.1026
▁Criminal	-11.1026
▁Hawkins	-11.1026
▁Portland	-11.1026
▁granddaughter	-11.1026
▁Clayton	-11.1026
▁1890	-11.1026
▁virginity	-11.1026
▁unfulfill	-11.1026
holy	-11.1026
▁Kingdom	-11.1026
▁fraternity	-11.1026
▁Sweden	-11.1026
▁curiosity	-11.1026
▁stepfather	-11.1026
▁Dalton	-11.1026
▁modest	-11.1026
▁Norw	-11.1026
▁2012	-11.1026
èle	-11.1027
Jo	-11.1027
▁Theatre	-11.1027
▁Price	-11.1027
▁traumatized	-11.1027
▁resolve	-11.1027
▁palace	-11.1027
▁swimming	-11.1027
▁Feeling	-11.1027
▁Yo	-11.1027
▁genetically	-11.1027
▁burgeoning	-11.1027
▁Thai	-11.1027
▁Nothing	-11.1027
▁Foley	-11.1028
▁drastic	-11.1028
▁immortality	-11.1028
▁Gwen	-11.1028
ani	-11.1029
▁Silverman	-11.1029
▁Agency	-11.1029
▁humankind	-11.1029
minous	-11.1029
▁1998	-11.103
▁spaceship	-11.103
▁Recently	-11.1031
▁atomic	-11.1031
▁random	-11.1031
▁sleaz	-11.1032
▁Pike	-11.1033
▁Goodman	-11.1033
Levitt	-11.1033
▁spann	-11.1034
▁immense	-11.1034
▁Valentine	-11.1034
▁beaten	-11.1034
▁absolute	-11.1035
from	-11.1035
▁programming	-11.1036
▁injustice	-11.1036
▁Paige	-11.1037
▁Camille	-11.1037
▁Caribbean	-11.1037
▁Montgomery	-11.1037
▁confidence	-11.1037
▁quarterback	-11.1037
▁caretaker	-11.1037
▁peak	-11.1037
▁antics	-11.1038
▁identify	-11.1038
▁Percy	-11.1038
▁Known	-11.1039
▁housekeeper	-11.1039
▁questionable	-11.1042
▁scout	-11.1042
▁drowning	-11.1042
▁Jeanne	-11.1042
▁bestseller	-11.1042
▁Wang	-11.1043
▁followers	-11.1043
▁Are	-11.1043
▁mega	-11.1043
▁Judge	-11.1043
▁swe	-11.1045
▁stroke	-11.1046
▁rabbit	-11.1046
▁preserve	-11.1047
▁alleged	-11.1048
▁burst	-11.105
▁dashing	-11.105
▁package	-11.1052
▁Brosnan	-11.1052
▁Kenneth	-11.1052
▁Garner	-11.1052
▁confirm	-11.1052
▁narrow	-11.1053
▁Ryder	-11.1054
▁Manny	-11.1055
▁Lennon	-11.1056
▁lights	-11.1056
▁authentic	-11.1059
▁proportions	-11.1063
▁Finn	-11.1065
▁Kenya	-11.1065
▁wrote	-11.1066
▁iron	-11.1066
▁Esther	-11.1067
▁Eden	-11.1068
▁Dillon	-11.1068
▁Narrat	-11.1071
shi	-11.1072
▁Slater	-11.1074
▁advanced	-11.1078
▁Brady	-11.1079
▁accidental	-11.1079
▁Theater	-11.1079
▁seniors	-11.108
▁Erin	-11.1081
▁Speed	-11.1082
▁pot	-11.1082
rich	-11.1088
juven	-11.109
▁Flee	-11.109
▁Welles	-11.1091
▁lucky	-11.1094
▁welcomed	-11.1094
▁physically	-11.1094
▁Clay	-11.1095
▁Gre	-11.1096
▁Vice	-11.1097
▁Lindsay	-11.1098
▁Edgar	-11.1098
▁Stephanie	-11.1098
▁utter	-11.1099
ella	-11.1101
▁arises	-11.1102
▁Bowl	-11.1104
▁promised	-11.1105
▁blossoms	-11.1106
▁observation	-11.1108
▁Wu	-11.1112
▁Garcia	-11.1113
▁Freddie	-11.1114
In	-11.1123
▁beating	-11.1123
real	-11.1127
ik	-11.113
▁Alexis	-11.1134
▁Comics	-11.1134
inary	-11.114
▁element	-11.1141
▁Chen	-11.1142
non	-11.1145
▁Nate	-11.1147
▁advances	-11.1152
▁Jonah	-11.116
▁allies	-11.116
▁photos	-11.116
mo	-11.1161
▁ye	-11.1168
show	-11.1171
▁maintaining	-11.1172
estic	-11.1173
▁photographs	-11.1177
▁Olympics	-11.1178
▁outwit	-11.1179
▁historic	-11.1179
▁foil	-11.1184
▁grace	-11.1185
otic	-11.1187
▁Det	-11.119
▁fails	-11.119
▁offering	-11.1192
▁Ice	-11.1206
writer	-11.1207
sch	-11.1208
▁witnessed	-11.121
▁profit	-11.1215
▁Week	-11.1216
▁Spann	-11.1222
fearsome	-11.1227
▁valu	-11.1227
▁heroine	-11.1229
▁Gunn	-11.1231
▁mot	-11.1232
▁Salt	-11.1233
▁Denis	-11.1237
▁rituals	-11.124
▁Te	-11.124
▁opened	-11.1254
▁Bridget	-11.1256
v	-11.1259
▁scrap	-11.1263
▁flu	-11.1273
▁doors	-11.1277
▁recordings	-11.1285
▁mounts	-11.1286
▁ba	-11.1289
ired	-11.1289
▁Shawn	-11.1305
▁haunts	-11.1306
▁Gar	-11.1315
tag	-11.1319
▁mis	-11.1326
▁quits	-11.1329
▁killings	-11.134
▁prepared	-11.135
▁Pl	-11.1355
▁Ru	-11.137
▁Sheen	-11.1372
▁essen	-11.1376
▁Girls	-11.139
▁rely	-11.139
▁dust	-11.1392
▁paintings	-11.1394
▁founder	-11.1401
▁appoint	-11.1402
▁bull	-11.1403
▁select	-11.1403
▁hearts	-11.1413
▁pose	-11.1414
playing	-11.1414
▁mall	-11.1419
▁Chie	-11.1421
▁occasional	-11.1423
▁Stu	-11.1424
ons	-11.1426
vin	-11.1426
opening	-11.1431
telling	-11.1432
▁Pan	-11.1435
cat	-11.1437
▁Bea	-11.145
▁Willis	-11.1459
ingly	-11.1463
▁convinc	-11.1465
rivate	-11.1472
▁Wilder	-11.1475
▁trains	-11.1484
what	-11.1486
movie	-11.1489
▁8-	-11.149
ini	-11.149
▁charges	-11.1491
▁catche	-11.1494
▁elude	-11.1499
comedy	-11.1502
▁Levi	-11.1508
▁rebels	-11.1523
row	-11.1528
▁rush	-11.1535
ul	-11.1544
▁300	-11.1545
-19	-11.1549
▁Legend	-11.1551
tired	-11.1551
▁grim	-11.1553
▁Ber	-11.1556
▁vi	-11.156
▁Har	-11.156
▁missions	-11.1566
after	-11.1568
gt	-11.1574
▁longs	-11.1575
▁Fed	-11.1578
▁1999	-11.1579
nished	-11.158
▁1974	-11.1582
national	-11.1588
▁suffer	-11.1593
▁Bart	-11.1594
month	-11.1597
eating	-11.1599
▁Feb	-11.1601
▁lift	-11.1602
good	-11.1607
Palm	-11.1612
Ma	-11.1613
▁Field	-11.1615
▁Music	-11.1615
Ron	-11.1618
four	-11.162
▁Chang	-11.1623
oven	-11.1631
▁nei	-11.1635
▁drink	-11.164
▁defie	-11.164
▁habit	-11.1642
release	-11.1642
Dais	-11.1644
op	-11.1649
▁bohemian	-11.1651
market	-11.1653
Smith	-11.1653
▁budd	-11.1655
Rogue	-11.1656
▁Bl	-11.1659
Clive	-11.166
Lewis	-11.1663
▁candidate	-11.1664
sweet	-11.1664
Catherine	-11.1665
Ray	-11.1666
Sophie	-11.1666
▁Rich	-11.1666
Tyler	-11.1667
▁ensue	-11.1667
▁audition	-11.1669
Murphy	-11.1669
▁wed	-11.167
▁Latino	-11.1671
▁Dragon	-11.1673
Kelly	-11.1673
Maya	-11.1673
iling	-11.1674
Amanda	-11.1674
▁solution	-11.1674
▁gig	-11.1675
▁Vampire	-11.1676
Willis	-11.1678
Zach	-11.168
▁communication	-11.168
Jackie	-11.1681
▁signal	-11.1681
▁revelation	-11.1681
▁belief	-11.1683
▁Studio	-11.1683
▁background	-11.1684
▁specialist	-11.1686
▁exception	-11.1689
▁Till	-11.1693
Lucas	-11.1693
▁bands	-11.1695
▁Ya	-11.17
▁dramatize	-11.1703
▁Bank	-11.1704
▁athlete	-11.1706
ev	-11.1706
▁Sta	-11.1707
▁text	-11.1708
lec	-11.1715
ified	-11.1717
▁lesson	-11.1718
▁relative	-11.1721
cha	-11.1721
▁type	-11.1728
▁cousins	-11.1731
▁comedians	-11.1732
▁Alien	-11.1735
dison	-11.1736
▁Game	-11.1736
love	-11.1737
ven	-11.1747
▁tr	-11.1747
▁Romania	-11.1749
▁Feder	-11.1751
▁size	-11.1758
sized	-11.1759
▁35	-11.1763
tal	-11.1773
gling	-11.1774
▁Human	-11.1791
ana	-11.1799
▁Les	-11.1801
rd	-11.1801
▁Pascal	-11.1806
▁attends	-11.1813
▁weird	-11.1813
▁Sand	-11.1813
Williams	-11.1813
Donald	-11.1816
wheel	-11.1817
stage	-11.1818
▁Lowe	-11.1822
▁dollar	-11.1826
▁manifest	-11.1828
▁heat	-11.1828
▁betray	-11.1829
gail	-11.183
top	-11.1832
▁aren	-11.1834
▁woo	-11.1837
▁steel	-11.1839
▁smooth	-11.1839
▁Ame	-11.184
▁labor	-11.1843
▁Office	-11.1845
▁Temple	-11.1847
▁expens	-11.185
▁execution	-11.1852
▁fantastic	-11.1854
▁dealers	-11.1854
▁cyber	-11.1858
▁lieutenant	-11.1859
▁Cranston	-11.1859
▁Gainsbourg	-11.1859
▁Godzilla	-11.1859
▁Jerusalem	-11.1859
▁McBride	-11.1859
▁McNamara	-11.1859
▁ferocious	-11.1859
▁irrevocabl	-11.1859
▁janitor	-11.1859
▁magnificent	-11.1859
▁paranoia	-11.1859
▁pharmaceutical	-11.1859
▁sniper	-11.1859
▁sorority	-11.1859
▁unstoppable	-11.1859
Wellspring	-11.1859
▁Network	-11.1859
▁Spielberg	-11.1859
▁salvation	-11.1859
stricken	-11.1859
▁unthinkable	-11.1859
▁Oxford	-11.1859
knuckle	-11.1859
▁disfigur	-11.1859
▁loneliness	-11.1859
▁Plaza	-11.1859
▁1984	-11.1859
▁opportunities	-11.1859
▁1983	-11.1859
▁detention	-11.1859
▁nervous	-11.1859
▁picturesque	-11.1859
▁Caesar	-11.1859
▁intensity	-11.1859
▁Science	-11.1859
▁Conrad	-11.1859
▁Planet	-11.1859
▁fraud	-11.1859
▁Seoul	-11.1859
▁Ferguson	-11.1859
▁Garfield	-11.1859
▁conscience	-11.1859
▁speech	-11.1859
▁overseas	-11.1859
▁commentary	-11.1859
▁Greece	-11.1859
▁Egyptian	-11.1859
▁guitarist	-11.1859
▁Trump	-11.1859
▁inspector	-11.1859
▁workaholic	-11.1859
▁Wiig	-11.1859
▁1953	-11.186
▁Peace	-11.186
▁overworked	-11.186
▁Pr	-11.186
▁Iowa	-11.186
▁distress	-11.186
▁Kelley	-11.186
▁Carell	-11.186
▁unassuming	-11.186
▁1900	-11.186
▁parole	-11.186
▁confused	-11.186
▁McCall	-11.1861
▁Filmmaker	-11.1861
▁Trek	-11.1861
▁ballet	-11.1861
▁booze	-11.1861
▁cruelty	-11.1861
▁undead	-11.1861
▁Rogen	-11.1861
▁sprawling	-11.1861
▁makeshift	-11.1861
▁Order	-11.1861
▁1964	-11.1862
▁botched	-11.1862
▁fourteen	-11.1862
▁accompany	-11.1862
▁handful	-11.1863
▁streak	-11.1863
▁stopped	-11.1863
▁knight	-11.1863
▁shopping	-11.1863
▁finest	-11.1864
▁significant	-11.1864
▁Commander	-11.1864
▁mirror	-11.1864
▁troupe	-11.1865
▁fed	-11.1865
▁redeem	-11.1866
▁docu	-11.1866
▁curious	-11.1866
▁publishing	-11.1867
▁Room	-11.1867
▁drunken	-11.1867
▁Dunn	-11.1867
▁Briggs	-11.1868
▁possesses	-11.1868
▁steep	-11.1868
▁blast	-11.1869
▁wrestler	-11.1869
▁debate	-11.1869
▁Marina	-11.1869
▁abduction	-11.187
▁DNA	-11.1871
▁utopia	-11.1871
▁Miguel	-11.1871
▁Cuba	-11.1871
▁Cassidy	-11.1871
▁Napoleon	-11.1871
▁Vo	-11.1871
▁pageant	-11.1871
▁Second	-11.1871
▁valley	-11.1871
▁Preston	-11.1871
sen	-11.1871
▁burden	-11.1871
▁expression	-11.1872
▁suburbia	-11.1872
▁decaying	-11.1873
▁cruise	-11.1873
▁deepest	-11.1873
▁paralyzed	-11.1873
▁administration	-11.1873
Jay	-11.1874
▁Burton	-11.1874
▁communicate	-11.1875
▁Chip	-11.1875
▁maybe	-11.1875
▁chess	-11.1877
▁foul	-11.1877
▁Lucky	-11.1879
Ki	-11.1881
▁relocated	-11.1884
▁conspire	-11.1884
▁Beast	-11.1884
▁pleasure	-11.1885
▁#	-11.1885
▁buddy	-11.1885
▁auction	-11.1885
▁Globe	-11.1886
▁grind	-11.1887
▁McConaughey	-11.1887
▁Bailey	-11.1887
▁outback	-11.1888
▁invisible	-11.1888
▁Madea	-11.1888
▁Darren	-11.1888
▁Morrison	-11.1889
▁Paradise	-11.1889
▁Lila	-11.189
▁soft	-11.1891
▁consumed	-11.1891
▁secretary	-11.1891
▁owners	-11.1894
▁term	-11.1894
▁damaged	-11.1895
▁yearning	-11.1895
▁Glass	-11.1899
▁Satur	-11.19
▁solv	-11.1903
▁pretend	-11.1903
▁Barrymore	-11.1905
▁Willie	-11.1905
▁invention	-11.1906
▁Woo	-11.1907
▁Rudd	-11.191
▁Reich	-11.1912
▁services	-11.1912
▁instantly	-11.1913
▁Imperi	-11.1915
▁dinosaurs	-11.1915
▁oldest	-11.1915
▁Fuel	-11.1916
▁Orlando	-11.192
▁Binoche	-11.192
▁stable	-11.1923
▁slacker	-11.1923
▁tele	-11.1925
▁mine	-11.1931
▁heels	-11.1931
▁continents	-11.1931
▁Mont	-11.1935
▁Herman	-11.1936
▁disconnect	-11.1937
▁op	-11.1937
▁frantic	-11.1937
▁cooking	-11.1938
▁existed	-11.1942
▁defin	-11.1942
▁slaves	-11.1943
▁developing	-11.1944
▁ruler	-11.1945
▁temper	-11.1946
▁foe	-11.1951
▁disappearing	-11.1952
▁Katy	-11.1953
▁Clooney	-11.1954
▁shores	-11.1956
▁boil	-11.1956
▁controlled	-11.1957
▁Laurel	-11.1957
▁Zack	-11.1958
▁motives	-11.1959
▁bury	-11.1959
▁Fresh	-11.1962
▁loser	-11.1963
▁Shane	-11.1965
▁Leonardo	-11.1969
▁armor	-11.1971
Susan	-11.1979
▁noble	-11.1983
▁struck	-11.1984
my	-11.1985
▁Rivers	-11.1987
▁Waters	-11.1987
▁Mal	-11.1987
▁belongs	-11.1991
▁Tara	-11.1996
▁earning	-11.1996
▁explorers	-11.1997
apped	-11.2005
▁Brett	-11.2005
ite	-11.2007
▁Allies	-11.201
▁Box	-11.2011
▁bureaucrat	-11.2016
▁Cha	-11.2016
▁ask	-11.202
▁Vanessa	-11.2022
▁Search	-11.2024
▁arriving	-11.2025
▁hopeful	-11.2029
▁Ku	-11.2033
work	-11.2034
▁Games	-11.2036
▁dumps	-11.2038
▁Bullock	-11.2038
ins	-11.2044
ugly	-11.2046
ping	-11.2047
▁encourage	-11.205
▁Phillips	-11.2052
▁Grim	-11.2054
.]	-11.2054
▁rain	-11.2057
▁weight	-11.2059
▁USA	-11.2065
▁Madam	-11.2068
ral	-11.2087
▁Hamm	-11.2095
▁Discover	-11.2101
▁Kath	-11.2102
▁Newman	-11.2102
▁beings	-11.2102
▁Elli	-11.2108
▁defect	-11.2109
▁organiz	-11.211
▁coal	-11.2112
▁Patti	-11.2116
soak	-11.2117
▁hop	-11.212
▁wanders	-11.2122
▁dragons	-11.2125
▁Locke	-11.2138
▁Elle	-11.2147
▁root	-11.2157
▁narrate	-11.2161
▁corporations	-11.2166
▁reporters	-11.2172
▁gods	-11.2174
▁directions	-11.2181
▁outsiders	-11.2188
▁persona	-11.2188
ola	-11.2191
owned	-11.2201
▁outcasts	-11.2203
▁core	-11.2216
▁Walk	-11.222
door	-11.2237
▁Va	-11.224
▁freed	-11.224
enous	-11.224
▁captivate	-11.224
▁Horse	-11.2249
▁Amber	-11.2252
are	-11.2254
▁Ball	-11.2254
▁inmates	-11.2256
▁Kids	-11.2257
imagin	-11.2259
▁conditions	-11.226
▁Mon	-11.2264
▁Cave	-11.2267
▁plac	-11.2268
▁exists	-11.2272
▁rages	-11.2273
▁print	-11.2274
▁lay	-11.2285
▁sacrifices	-11.2286
wan	-11.2293
ga	-11.2293
Summ	-11.2305
ileen	-11.2313
▁occasion	-11.2314
ita	-11.2315
shot	-11.2318
▁perspectives	-11.2323
▁value	-11.233
5	-11.2331
▁vers	-11.2336
▁villains	-11.2339
90	-11.2342
ison	-11.2348
les	-11.2357
ika	-11.2364
▁SS	-11.2384
)—	-11.2398
not	-11.24
eyed	-11.2401
▁ragt	-11.2406
Day	-11.2417
ello	-11.2418
▁gifts	-11.2419
▁ages	-11.243
uary	-11.2432
▁fields	-11.2438
▁Karl	-11.2445
▁devou	-11.2446
▁remove	-11.2454
▁guards	-11.2463
ow	-11.2468
▁thin	-11.2473
zy	-11.2474
▁wage	-11.248
Fine	-11.2485
▁drop	-11.2487
▁1986	-11.2491
▁Trace	-11.2491
▁rescu	-11.2493
esley	-11.2501
▁hurt	-11.2501
ologist	-11.2503
ification	-11.2504
▁fail	-11.2508
▁Anton	-11.2509
▁1993	-11.2521
▁Isabel	-11.2525
▁tha	-11.2528
▁unravels	-11.2531
Jude	-11.2531
▁forests	-11.2532
▁Did	-11.2542
▁tank	-11.2543
Lauren	-11.2544
Zac	-11.2547
Frank	-11.2548
Benedict	-11.2549
▁Lil	-11.2554
hit	-11.2554
played	-11.2557
▁Gal	-11.2558
wide	-11.2559
▁vet	-11.256
Gina	-11.2561
Harris	-11.2562
million	-11.2565
▁k	-11.2566
Idris	-11.2569
running	-11.2569
▁Angels	-11.2569
Oscar	-11.2569
▁introduce	-11.257
Tony	-11.2571
▁salon	-11.2571
▁earthquake	-11.2571
▁dictator	-11.2572
▁Melan	-11.2573
Haley	-11.2573
ns	-11.2574
▁playground	-11.2574
Hannah	-11.2574
Bullock	-11.2575
Glen	-11.2575
Leslie	-11.2575
smart	-11.2575
Craig	-11.2575
No	-11.2575
Allison	-11.2576
Sandra	-11.2576
▁delinquent	-11.2577
Damon	-11.2577
▁drone	-11.2577
ye	-11.2578
USA	-11.2579
Bryan	-11.258
Ashley	-11.2582
▁prank	-11.2586
▁museum	-11.2586
Woody	-11.2587
Robin	-11.2587
▁Olympic	-11.2589
▁lesbian	-11.259
lifetime	-11.2592
▁civilian	-11.2592
Alice	-11.2593
ef	-11.2596
▁prospect	-11.2597
▁Macki	-11.2602
weight	-11.2603
▁Phillip	-11.2604
Sally	-11.2606
racial	-11.2607
▁researcher	-11.262
▁stray	-11.2622
▁visitor	-11.2622
▁switch	-11.2627
Jeffr	-11.2628
named	-11.2628
▁Mira	-11.2629
ability	-11.2634
Ian	-11.2637
ned	-11.2638
irsch	-11.2643
▁knock	-11.2644
▁Scar	-11.2649
rown	-11.2656
▁Dar	-11.2659
iel	-11.2659
mouse	-11.2662
▁Monte	-11.2669
▁Far	-11.2673
▁friendships	-11.2683
▁Pre	-11.2696
▁smuggle	-11.2698
▁overwhelm	-11.2711
▁themes	-11.2712
▁counterfeit	-11.2715
▁dates	-11.272
Chlo	-11.2728
▁terribl	-11.2733
▁crusade	-11.2738
▁Gus	-11.2745
▁ignite	-11.2748
▁Tel	-11.2748
▁update	-11.2749
▁inexplicabl	-11.275
▁bully	-11.2751
▁weave	-11.2758
▁talents	-11.276
▁Midwest	-11.2763
▁evolution	-11.2765
▁Shepherd	-11.2766
▁cartoon	-11.2767
▁tycoon	-11.2768
%	-11.2768
▁Amsterdam	-11.2768
▁Balboa	-11.2768
▁Carpenter	-11.2768
▁Fassbender	-11.2768
▁Istanbul	-11.2768
▁bourgeois	-11.2768
▁confidant	-11.2768
▁hairdresser	-11.2768
▁paranoid	-11.2768
▁platform	-11.2768
▁recognition	-11.2768
▁substitute	-11.2768
▁vignettes	-11.2768
▁yacht	-11.2768
▁rampage	-11.2768
▁Suzanne	-11.2768
▁misunderstood	-11.2768
▁pristine	-11.2768
▁Belgian	-11.2768
▁Mortensen	-11.2768
▁luxurious	-11.2768
▁Kentucky	-11.2768
▁mermaid	-11.2768
▁Hundred	-11.2768
▁1948	-11.2768
▁Clyde	-11.2768
▁opinion	-11.2768
▁misguided	-11.2768
▁massacre	-11.2768
▁spacecraft	-11.2768
▁unwanted	-11.2768
▁exquisite	-11.2768
▁advisor	-11.2768
▁investment	-11.2768
▁optimism	-11.2768
▁Writer	-11.2768
▁frustration	-11.2768
▁Abrams	-11.2768
▁bloodthirsty	-11.2768
▁Security	-11.2768
▁dubious	-11.2768
▁informant	-11.2768
▁Renaissance	-11.2768
▁Toronto	-11.2768
▁glamour	-11.2768
▁literature	-11.2768
▁Heaven	-11.2768
▁laboratory	-11.2768
▁Venice	-11.2768
▁activity	-11.2768
▁supremacy	-11.2768
▁1957	-11.2768
▁2017	-11.2768
▁residence	-11.2768
▁Montreal	-11.2769
▁Guardian	-11.2769
▁nickname	-11.2769
▁manipulative	-11.2769
▁interpretation	-11.2769
▁derail	-11.2769
▁1965	-11.2769
▁unwilling	-11.2769
▁Institute	-11.2769
▁thriving	-11.2769
▁wolves	-11.2769
▁courtship	-11.277
▁Igor	-11.277
▁penniless	-11.277
▁supply	-11.277
▁glorious	-11.277
▁governor	-11.277
▁Upper	-11.277
▁Secretary	-11.2771
▁Quill	-11.2771
▁Hasid	-11.2771
▁intention	-11.2771
▁Kenny	-11.2772
▁leadership	-11.2772
▁Dorothy	-11.2772
▁Conor	-11.2772
▁introverted	-11.2773
▁striving	-11.2773
▁triumphant	-11.2774
▁seduction	-11.2774
▁vanishes	-11.2774
▁committing	-11.2774
▁Sharp	-11.2774
▁terrified	-11.2774
▁basis	-11.2774
▁proper	-11.2774
▁Point	-11.2775
▁caper	-11.2775
▁timid	-11.2776
▁compound	-11.2776
▁primary	-11.2777
▁upscale	-11.2777
▁Wolff	-11.2777
▁warmth	-11.2777
▁Hammer	-11.2777
ario	-11.2778
▁crossroads	-11.2779
▁Harmon	-11.2779
▁accomplished	-11.278
▁dutiful	-11.278
▁Wizard	-11.2781
▁Chance	-11.2781
▁traitor	-11.2781
▁Dafoe	-11.2781
▁occurred	-11.2781
▁Diesel	-11.2781
▁Cumberbatch	-11.2781
▁Statham	-11.2781
▁hybrid	-11.2781
▁Gallagher	-11.2781
▁Maurice	-11.2781
▁Communist	-11.2781
su	-11.2781
▁Par	-11.2781
▁Jamaica	-11.2781
▁Cody	-11.2782
▁bought	-11.2782
▁Tanner	-11.2782
▁invaders	-11.2782
▁collaboration	-11.2782
▁progressive	-11.2784
▁neglected	-11.2785
▁Caroline	-11.2785
▁Gregory	-11.2785
▁Momo	-11.2785
▁Bates	-11.2785
▁morality	-11.2786
▁photography	-11.2786
▁Atlantic	-11.2786
▁plantation	-11.2787
▁Head	-11.2788
▁Winston	-11.2788
▁Ukraine	-11.279
▁unexplained	-11.279
ung	-11.2791
▁unbelievable	-11.2791
▁Tonight	-11.2791
▁descent	-11.2791
▁Iris	-11.2793
▁Watch	-11.2794
▁regularly	-11.2795
▁declared	-11.2797
▁Blunt	-11.2798
▁cutting	-11.2798
▁Killer	-11.2799
▁IMAX	-11.2799
▁Donovan	-11.2799
rugged	-11.2799
▁infidelity	-11.2799
ena	-11.2799
▁Arab	-11.2801
▁Vivian	-11.2801
▁Dolly	-11.2802
▁Bonnie	-11.2802
▁History	-11.2802
▁explain	-11.2803
▁Alvin	-11.2805
▁DI	-11.2806
▁accountant	-11.2807
▁fallout	-11.281
▁Early	-11.2811
▁catapult	-11.2812
▁occurrences	-11.2812
▁eagerly	-11.2813
ction	-11.2813
▁greedy	-11.2814
▁novella	-11.2814
▁Pen	-11.2816
▁Ph	-11.2816
▁Billie	-11.2817
▁Fonda	-11.2817
she	-11.2817
▁discoveries	-11.2818
▁Rice	-11.2818
▁Party	-11.2819
▁protective	-11.2819
▁troops	-11.282
▁Moses	-11.282
▁enable	-11.2821
▁radically	-11.2822
▁infected	-11.2822
▁relations	-11.283
▁plus	-11.2831
▁reappears	-11.2831
ssociation	-11.2832
▁ethical	-11.2833
▁Looking	-11.2834
▁Schneider	-11.2836
▁Witherspoon	-11.2836
▁mess	-11.2836
▁graduated	-11.2841
asked	-11.2843
▁Avengers	-11.2843
▁inherited	-11.2844
▁factions	-11.2845
▁2007	-11.2846
Ali	-11.2846
▁Lars	-11.2849
ew	-11.285
arrow	-11.2851
▁seduces	-11.2853
▁budget	-11.2854
▁delightful	-11.2854
▁Schwarzenegger	-11.2854
▁Mc	-11.2856
▁Open	-11.2856
▁Word	-11.2857
▁Carrey	-11.2857
▁urges	-11.2861
▁Elliott	-11.2861
▁Barbara	-11.2862
▁Bacon	-11.2863
▁reported	-11.2864
▁spreading	-11.2865
▁wing	-11.2867
▁capable	-11.2869
▁actresses	-11.287
▁bail	-11.2872
▁totally	-11.2872
▁Sasha	-11.2873
▁Griffin	-11.2876
▁highlight	-11.2877
▁shatters	-11.2878
▁Theron	-11.288
▁travelers	-11.2881
▁Round	-11.2882
▁zoo	-11.2887
▁scripted	-11.289
▁Poot	-11.2893
▁erupts	-11.2894
▁dominated	-11.2895
Nat	-11.2901
▁cl	-11.2904
▁Marion	-11.2907
▁relive	-11.2908
▁photograph	-11.2909
▁Travolta	-11.291
▁inept	-11.2913
▁outer	-11.2923
ister	-11.293
married	-11.2943
▁birds	-11.2944
hood	-11.2951
▁reprise	-11.2953
▁Isabelle	-11.2954
▁Tomas	-11.2954
▁tricks	-11.2956
has	-11.2958
▁Mills	-11.2961
▁roam	-11.2962
▁Der	-11.2963
▁Leslie	-11.2965
▁roads	-11.2969
▁watched	-11.297
▁murk	-11.2978
▁altered	-11.2984
annibal	-11.2995
▁fore	-11.2997
▁ra	-11.3001
▁Close	-11.3011
Ha	-11.3022
kes	-11.3022
ula	-11.3023
▁disrupt	-11.3024
▁mistakes	-11.3028
other	-11.3029
▁com	-11.3031
▁secretive	-11.3032
▁Fish	-11.3032
▁clubs	-11.3033
extraterrestrial	-11.3033
ave	-11.3038
flin	-11.3038
▁sins	-11.3044
▁Made	-11.3049
▁balanc	-11.3049
▁marks	-11.3054
▁conventions	-11.3055
Don	-11.3058
▁Wonder	-11.3063
▁Band	-11.3066
Ros	-11.3066
▁Peck	-11.3076
▁Bal	-11.3076
▁meteori	-11.308
La	-11.3083
▁needed	-11.3087
▁Sever	-11.3091
▁Bridges	-11.3098
akes	-11.3102
za	-11.3104
▁beg	-11.3109
onne	-11.3111
▁Louise	-11.3112
▁burn	-11.3113
▁Joey	-11.3114
▁masters	-11.3114
sitting	-11.3114
6	-11.3119
▁Cat	-11.3122
▁assemble	-11.3122
fire	-11.3124
▁cons	-11.3128
tan	-11.313
▁waits	-11.3131
▁Witch	-11.3141
▁completel	-11.3145
▁rekindle	-11.3148
naval	-11.3154
▁5-	-11.3161
▁Amid	-11.3167
▁orchestrate	-11.3169
tches	-11.3174
▁opposites	-11.3185
▁21-	-11.3186
▁reopen	-11.3196
▁describe	-11.32
▁encountered	-11.3202
▁abus	-11.3205
▁Tess	-11.3206
▁Democrat	-11.321
▁7-	-11.321
ld	-11.3212
▁bare	-11.3212
▁Rust	-11.3222
▁cr	-11.3223
Melan	-11.3227
▁classifi	-11.3229
▁transcend	-11.3231
ID	-11.3234
place	-11.3248
▁showcase	-11.325
▁brains	-11.3258
▁Adventure	-11.3263
▁poetic	-11.3263
▁draw	-11.3264
▁sabotage	-11.3266
mann	-11.3269
under	-11.3275
downtown	-11.3279
▁Palm	-11.3289
▁jeopardize	-11.3291
ept	-11.3294
▁Kill	-11.3296
Ru	-11.3299
▁Elio	-11.3304
▁Dad	-11.331
ically	-11.3316
▁Nat	-11.3328
▁Gra	-11.3334
play	-11.3346
▁protected	-11.3352
▁Columbia	-11.3356
▁loop	-11.3369
▁circ	-11.3371
▁phenomena	-11.3374
William	-11.3381
▁Simone	-11.3381
▁ident	-11.3387
▁tall	-11.339
▁Hi	-11.3393
▁narrat	-11.3399
▁Jacobs	-11.34
▁Bening	-11.3403
either	-11.3403
lie	-11.3406
▁Sol	-11.3413
▁Edwards	-11.3414
ggy	-11.3419
▁models	-11.342
▁insight	-11.3427
▁machines	-11.3429
▁Trouble	-11.3435
iar	-11.344
ino	-11.3453
▁assist	-11.3465
▁Sal	-11.3466
▁scandals	-11.3466
▁fathers	-11.347
▁tend	-11.3471
ert	-11.3472
bandoned	-11.348
▁Solo	-11.3484
crime	-11.3491
▁1944	-11.3493
▁Wy	-11.3494
living	-11.3498
Brad	-11.3498
▁Federa	-11.35
▁1963	-11.3501
fer	-11.3506
▁tie	-11.3511
▁stone	-11.3513
▁pastor	-11.3513
llowed	-11.3514
pop	-11.3515
cclaimed	-11.3515
teen	-11.3524
▁nurs	-11.3525
Ni	-11.3526
▁bout	-11.3527
child	-11.3527
▁Europea	-11.3533
ue	-11.3535
front	-11.3537
▁spins	-11.354
▁tide	-11.354
▁3-	-11.354
right	-11.3543
▁ravage	-11.3546
bringing	-11.3549
Ken	-11.3549
Octavi	-11.3552
ab	-11.3554
US	-11.3555
▁Beck	-11.3557
▁debts	-11.3559
▁predator	-11.3559
Brittany	-11.356
▁Sunday	-11.356
screen	-11.3561
▁grocer	-11.3562
Neil	-11.3564
▁favor	-11.3565
ink	-11.3566
Alison	-11.3567
Grant	-11.3567
Ruth	-11.3567
Moore	-11.3567
Wilson	-11.3568
▁doorstep	-11.357
Julie	-11.357
air	-11.357
Owen	-11.3572
Aubrey	-11.3573
depth	-11.3573
language	-11.3574
Bobby	-11.3574
Vanessa	-11.3574
related	-11.3574
Patricia	-11.3575
Sandler	-11.3575
Riley	-11.3575
Logan	-11.3576
Guy	-11.3576
driven	-11.3576
▁upheaval	-11.3577
▁singers	-11.358
addict	-11.358
▁humiliat	-11.358
Katie	-11.3581
▁scholar	-11.3581
▁afternoon	-11.3582
Sig	-11.3582
Kyle	-11.3584
▁miracle	-11.3586
▁heading	-11.3587
▁temptation	-11.3588
▁absurd	-11.3588
▁bio	-11.3589
▁guides	-11.3591
▁corpse	-11.3592
▁easi	-11.3596
▁fier	-11.3596
sightful	-11.3596
▁tactic	-11.3596
smith	-11.3597
▁Other	-11.3599
▁dread	-11.3605
Mia	-11.3605
▁Col	-11.3606
Joy	-11.361
▁concern	-11.3615
ux	-11.3616
▁pig	-11.3617
▁Know	-11.3624
▁Mos	-11.3627
rriving	-11.3627
▁exploit	-11.363
▁viewer	-11.3631
▁egg	-11.3632
▁views	-11.3638
▁Tall	-11.3638
▁option	-11.3639
▁Tar	-11.3643
view	-11.3645
▁Prison	-11.3652
load	-11.3652
scenes	-11.3659
ig	-11.3664
▁runner	-11.3672
▁dropp	-11.3674
▁bird	-11.3674
cing	-11.3687
▁Tr	-11.3691
▁Per	-11.3691
▁Fat	-11.3695
▁situations	-11.3699
ifying	-11.3704
▁investigati	-11.3705
▁Mill	-11.3706
▁Ginger	-11.3713
lon	-11.3716
Hilar	-11.3717
▁Rap	-11.372
▁parod	-11.3721
▁cute	-11.3725
▁insider	-11.3728
▁smoke	-11.373
▁Pakistan	-11.3732
capture	-11.3735
▁discipline	-11.3736
▁flood	-11.3737
▁mutate	-11.3737
▁captur	-11.374
▁sale	-11.3743
▁measure	-11.3743
bad	-11.3744
▁unfortunate	-11.3744
▁NY	-11.3746
▁Afghan	-11.3749
▁societ	-11.3751
▁Alon	-11.3752
▁deserve	-11.3755
▁stole	-11.3756
▁Ti	-11.3758
▁airline	-11.3759
▁Janu	-11.3759
▁damage	-11.376
▁anchor	-11.3765
ourney	-11.3766
▁virgin	-11.3767
▁shepherd	-11.3767
▁slaughter	-11.3767
Anchor	-11.3768
▁Alzheimer	-11.3768
▁Herzog	-11.3768
▁Liverpool	-11.3768
▁Magazine	-11.3768
▁Mikkelsen	-11.3768
▁Soderbergh	-11.3768
▁Supreme	-11.3768
▁Twelve	-11.3768
▁Vatican	-11.3768
▁acquaintance	-11.3768
▁dilapidated	-11.3768
▁mundane	-11.3768
▁pickpocket	-11.3768
▁proprietor	-11.3768
▁sergeant	-11.3768
▁staggering	-11.3768
▁Jarvis	-11.3768
▁marijuana	-11.3768
▁railroad	-11.3768
▁sacred	-11.3768
▁wondrous	-11.3768
▁Obama	-11.3768
▁arrogan	-11.3768
▁Cyrus	-11.3768
▁Taiwan	-11.3768
▁commercial	-11.3768
▁scramble	-11.3768
▁stubborn	-11.3768
▁Czech	-11.3768
▁LEGO	-11.3768
▁Theodore	-11.3768
▁annihilation	-11.3768
▁oppressed	-11.3768
▁Written	-11.3768
▁diaries	-11.3768
▁pilgrimage	-11.3768
▁Plague	-11.3768
▁Fifteen	-11.3768
▁Grillo	-11.3768
▁Bureau	-11.3768
▁despair	-11.3768
▁morgue	-11.3768
▁terrain	-11.3768
▁dignity	-11.3768
▁1958	-11.3768
▁Ripley	-11.3768
▁Shepard	-11.3768
▁Solomon	-11.3768
▁imprisonment	-11.3768
▁condemned	-11.3768
▁precision	-11.3768
▁demise	-11.3768
▁fisherman	-11.3768
▁possibilities	-11.3768
▁singular	-11.3768
▁Thanksgiving	-11.3768
▁townspeople	-11.3768
▁Arnett	-11.3768
▁Debora	-11.3768
▁depend	-11.3768
▁Children	-11.3768
▁lottery	-11.3768
▁vulnerable	-11.3768
▁courier	-11.3768
▁whimsical	-11.3768
▁coffee	-11.3768
▁academy	-11.3768
▁lyrical	-11.3768
mptu	-11.3768
▁swamp	-11.3768
▁Presley	-11.3768
▁Edgerton	-11.3768
▁bustling	-11.3768
▁hysterical	-11.3768
▁liberation	-11.3768
▁glitter	-11.3768
▁babysitter	-11.3768
▁Becca	-11.3768
▁Hanna	-11.3768
▁Wonderland	-11.3768
▁crises	-11.3768
▁1947	-11.3769
▁Zealand	-11.3769
▁Stalin	-11.3769
▁Gustav	-11.3769
▁prejudice	-11.3769
▁crumbling	-11.3769
▁Tyson	-11.3769
▁Bowie	-11.3769
▁laughter	-11.3769
▁Tucci	-11.3769
▁translator	-11.3769
▁delicious	-11.3769
▁Schmidt	-11.3769
▁skeptical	-11.3769
▁enslaved	-11.3769
▁clips	-11.3769
▁syndicate	-11.377
▁tireless	-11.377
▁abortion	-11.377
▁Thunder	-11.377
▁invit	-11.377
▁Monkey	-11.377
▁rivalries	-11.377
▁Argentina	-11.377
▁resourceful	-11.377
▁taxi	-11.377
▁edgy	-11.377
▁interconnected	-11.377
▁dwindling	-11.377
▁Saul	-11.3771
▁desk	-11.3771
▁narrator	-11.3771
▁vivaci	-11.3771
▁dropout	-11.3771
▁Stranded	-11.3771
Nikki	-11.3771
▁Clarkson	-11.3771
▁Sonny	-11.3771
▁maze	-11.3772
▁lightning	-11.3772
▁Quick	-11.3772
▁affable	-11.3772
▁Joyce	-11.3772
▁heinous	-11.3773
▁creepy	-11.3773
▁Kitty	-11.3773
▁decorated	-11.3773
▁injuries	-11.3773
▁Cube	-11.3774
▁Carson	-11.3774
▁Finch	-11.3774
50	-11.3774
quaint	-11.3774
▁Rather	-11.3775
▁profession	-11.3775
▁Lester	-11.3775
▁battlefield	-11.3775
▁Coach	-11.3776
▁diva	-11.3776
▁settling	-11.3777
▁motherhood	-11.3777
▁Ferris	-11.3778
▁float	-11.3778
▁Larson	-11.3778
▁spectacle	-11.3778
▁responsibilit	-11.3778
▁Garth	-11.3779
▁Mick	-11.3781
▁Body	-11.3781
▁troubling	-11.3781
▁silver	-11.3782
▁1939	-11.3782
▁twenties	-11.3782
▁Shanghai	-11.3782
▁Missouri	-11.3782
▁rundown	-11.3782
▁Knoxville	-11.3782
▁Whitney	-11.3782
▁garage	-11.3782
▁Coogan	-11.3782
▁junkie	-11.3782
▁1955	-11.3783
▁Zero	-11.3783
▁Rambo	-11.3783
mouthed	-11.3783
▁Tristar	-11.3783
▁Walsh	-11.3783
▁minister	-11.3783
▁Cassandra	-11.3784
▁audio	-11.3784
▁Izzy	-11.3784
▁clown	-11.3784
▁Carmen	-11.3785
▁Josie	-11.3785
▁Where	-11.3785
▁spill	-11.3786
▁Hugo	-11.3786
▁Heig	-11.3786
▁Rider	-11.3786
▁Henson	-11.3786
▁Class	-11.3787
▁endangered	-11.3788
▁Reggie	-11.3788
▁Colman	-11.3789
early	-11.379
▁Chinatown	-11.3791
zi	-11.3793
ties	-11.3793
▁outspoken	-11.3793
▁Rita	-11.3793
▁Warner	-11.3793
▁Sonia	-11.3794
▁ensure	-11.3795
▁romantically	-11.3795
▁Elise	-11.3796
roll	-11.3796
▁Color	-11.3797
▁techniques	-11.3798
▁searing	-11.3799
▁Syrian	-11.3799
▁diving	-11.38
▁jealousy	-11.38
cumb	-11.38
▁redefine	-11.3801
▁narcotics	-11.3802
▁Giamatti	-11.3802
▁Huppert	-11.3802
▁Kirby	-11.3802
▁Madeleine	-11.3802
▁perhaps	-11.3802
▁Sarandon	-11.3802
▁Lizzie	-11.3802
▁Reilly	-11.3803
▁storytelling	-11.3804
▁math	-11.3804
▁gamble	-11.3804
▁Randall	-11.3805
▁orbit	-11.3806
▁Operation	-11.3806
▁attached	-11.3807
▁dispute	-11.3807
▁Easy	-11.3807
▁Leah	-11.3807
▁vain	-11.3807
▁trading	-11.3808
inspired	-11.3808
▁Maddie	-11.381
▁tightly	-11.381
▁Sha	-11.381
▁Julien	-11.381
▁Chronicles	-11.3811
▁Code	-11.3812
▁response	-11.3813
▁cheating	-11.3819
▁Becket	-11.382
▁treated	-11.3822
ves	-11.3822
▁Aniston	-11.3822
▁Harriet	-11.3822
▁Connie	-11.3823
▁Firth	-11.3824
▁Pam	-11.3824
▁beaches	-11.3824
▁fro	-11.3824
▁devise	-11.3825
▁recognized	-11.3826
▁marine	-11.3828
▁Berry	-11.3828
▁stream	-11.3828
▁structure	-11.3829
▁fri	-11.383
▁executed	-11.3831
▁Maxim	-11.3833
▁Your	-11.3834
▁bullying	-11.3834
▁restored	-11.3834
▁immerse	-11.3836
▁enchanting	-11.384
▁cam	-11.384
des	-11.3842
▁Phoebe	-11.3843
▁Paxton	-11.3843
▁Redford	-11.3844
▁slip	-11.3845
▁steam	-11.3847
▁Silva	-11.3847
▁Wilde	-11.3847
▁emerged	-11.3848
▁agreed	-11.3848
sale	-11.385
▁published	-11.3851
▁Abbie	-11.3852
▁fitting	-11.3852
▁wandering	-11.3855
▁intended	-11.3856
inal	-11.386
▁rope	-11.386
▁Mona	-11.3862
▁bills	-11.3862
▁Caleb	-11.3863
▁Bolt	-11.3863
▁Winslet	-11.3863
▁Jacqueline	-11.3863
▁Place	-11.3868
ining	-11.3868
▁pushe	-11.387
▁cheer	-11.387
▁Hale	-11.3871
▁proceeds	-11.3874
▁anime	-11.3874
▁grass	-11.3874
▁benefits	-11.3874
▁clearly	-11.3874
▁delusions	-11.3875
ature	-11.3876
▁Ce	-11.3878
▁Cusack	-11.3884
▁Kinnear	-11.3884
▁Kathy	-11.3884
▁Reno	-11.3885
▁meal	-11.3888
▁progress	-11.3891
▁neck	-11.3893
▁Swis	-11.3895
▁overly	-11.3897
▁Ella	-11.3901
▁mouth	-11.3902
▁Gramm	-11.3907
ía	-11.3913
▁assumes	-11.3914
▁35-	-11.3915
▁convincing	-11.3915
▁reading	-11.3916
▁Eyes	-11.3916
▁ar	-11.392
aring	-11.3921
laws	-11.3922
▁Cynthia	-11.3925
▁Sofia	-11.3926
▁Sophia	-11.3926
▁harder	-11.3928
▁kn	-11.393
▁propose	-11.3931
▁Rae	-11.3932
▁Lower	-11.3932
▁Monsters	-11.3932
await	-11.3932
▁render	-11.3933
▁Fort	-11.3934
▁charit	-11.3934
▁Gris	-11.3938
▁feudal	-11.3941
lo	-11.3942
▁remained	-11.3942
▁Allie	-11.3944
ure	-11.3946
▁temptations	-11.3952
▁continued	-11.3953
▁Georgian	-11.3956
▁rumors	-11.3963
▁Islam	-11.3965
▁Die	-11.3965
▁civilians	-11.397
▁Boyd	-11.3975
▁Mom	-11.3976
▁conjure	-11.3977
▁drops	-11.3981
▁shuttl	-11.3982
▁amount	-11.3984
Dwa	-11.3985
▁coup	-11.3986
▁Agath	-11.3986
ence	-11.3993
▁declare	-11.3994
sense	-11.3996
▁coaching	-11.3998
▁punch	-11.4004
dropping	-11.4005
ual	-11.4011
▁plung	-11.4013
▁product	-11.4015
▁affections	-11.4022
etired	-11.4023
▁objects	-11.4023
▁Clive	-11.4024
acre	-11.4025
▁sleeping	-11.4026
tight	-11.4027
▁Philipp	-11.4028
per	-11.4029
▁Springs	-11.4029
▁Gen	-11.4031
▁walking	-11.4035
▁casual	-11.4038
ayne	-11.404
▁romances	-11.4041
▁add	-11.4044
▁employers	-11.4044
▁warnings	-11.4047
elected	-11.4047
▁possess	-11.4047
▁hates	-11.4049
▁Saints	-11.405
▁wounds	-11.405
ft	-11.405
▁corners	-11.4052
Le	-11.406
▁Cup	-11.4061
▁mail	-11.4069
0	-11.407
▁tapes	-11.4076
▁gr	-11.4077
▁storie	-11.408
▁suspicions	-11.4084
▁ab	-11.4084
▁mobsters	-11.4086
▁duck	-11.4093
▁projects	-11.4095
▁songwriter	-11.4097
gen	-11.4109
▁Jenna	-11.4111
ER	-11.4113
ries	-11.4117
▁dub	-11.4117
▁Ye	-11.4122
▁diagnos	-11.4134
▁impos	-11.4137
”.	-11.4139
osely	-11.4139
▁Late	-11.4147
▁Ver	-11.4152
Keir	-11.4152
rated	-11.4156
▁temporar	-11.4161
▁Mountains	-11.4162
▁farming	-11.4171
▁theatric	-11.4174
▁harm	-11.4178
It	-11.4187
▁clu	-11.4189
▁lasting	-11.4194
▁wak	-11.4197
▁See	-11.4198
ti	-11.4199
▁asset	-11.4201
▁regret	-11.4203
▁Front	-11.4205
gan	-11.4207
ona	-11.4223
▁perfection	-11.4227
▁waste	-11.4231
ker	-11.4237
tting	-11.4238
leston	-11.4247
▁uncovered	-11.4248
dog	-11.4249
ac	-11.4255
▁east	-11.4264
▁traumati	-11.4267
▁Jam	-11.4277
▁Luc	-11.4278
wield	-11.4278
▁dogs	-11.4279
erto	-11.4279
ehind	-11.4279
list	-11.4292
▁Have	-11.4294
▁Lead	-11.4294
▁Seek	-11.4296
▁Smart	-11.4296
dling	-11.4301
▁photo	-11.4309
Fat	-11.4311
▁orchestra	-11.4311
▁45	-11.4313
▁Tre	-11.4322
▁aware	-11.4336
ub	-11.4341
▁Kristen	-11.4343
▁Shin	-11.4352
▁pure	-11.4354
▁rocker	-11.4355
aid	-11.4359
▁Eugen	-11.4364
▁mi	-11.4367
mark	-11.4369
dom	-11.439
▁Sim	-11.4391
tor	-11.4392
vering	-11.44
▁settles	-11.4404
▁Ny	-11.4404
▁Hems	-11.4405
▁im	-11.441
ai	-11.442
ex	-11.4429
isha	-11.4434
winner	-11.4444
▁Guard	-11.4448
▁ta	-11.4455
▁Sue	-11.4468
producer	-11.4468
ike	-11.4469
nett	-11.4472
blooded	-11.4473
▁Lea	-11.4475
hot	-11.4478
▁tap	-11.4482
▁Bro	-11.4484
▁scar	-11.4486
daughter	-11.4492
▁rides	-11.4498
▁surroundings	-11.4506
▁bust	-11.4506
▁plagu	-11.4512
rounded	-11.4512
rock	-11.4516
▁topic	-11.4519
▁Gale	-11.4521
ight	-11.4523
▁banks	-11.4523
▁Turn	-11.4545
▁girlfriends	-11.4545
Sha	-11.4549
drawn	-11.4549
▁beer	-11.4555
4	-11.4561
▁Cru	-11.4563
▁parad	-11.4566
▁exam	-11.4567
▁Dre	-11.4567
▁hitch	-11.4568
▁eat	-11.4579
▁Harle	-11.4586
going	-11.4594
ura	-11.4595
ria	-11.46
▁65	-11.4608
▁Mack	-11.4609
motion	-11.4611
▁banishe	-11.4611
▁si	-11.4611
Star	-11.4617
▁mes	-11.4618
▁distinct	-11.4624
wn	-11.4625
vi	-11.4629
attle	-11.4631
▁Wal	-11.4631
Regent	-11.4639
ext	-11.4643
▁leg	-11.4644
tte	-11.4644
▁Guill	-11.4648
▁laugh	-11.4651
written	-11.4658
gang	-11.4659
▁advance	-11.4668
▁assailant	-11.4668
military	-11.4669
Washington	-11.4669
Eva	-11.4671
fashion	-11.4672
▁manner	-11.4672
Greg	-11.4672
CIA	-11.4673
aud	-11.4676
Annette	-11.4676
▁examin	-11.4678
Gerard	-11.468
Sylvester	-11.468
Streep	-11.4681
Parker	-11.4681
▁Giant	-11.4683
Claude	-11.4683
Campbell	-11.4683
Judd	-11.4684
Molly	-11.4684
Denis	-11.4684
threatening	-11.4685
Jonah	-11.4685
Blake	-11.4686
Derek	-11.4686
Depp	-11.4686
Angela	-11.4686
folk	-11.4687
Karen	-11.4687
▁nomad	-11.4688
Judy	-11.4688
▁intertwin	-11.4689
▁immigrants	-11.469
▁dilemma	-11.4691
dollar	-11.4691
▁whale	-11.4691
Andy	-11.4693
Isabelle	-11.4694
▁express	-11.4695
Dom	-11.4695
Gemm	-11.4696
Harrison	-11.4696
Sara	-11.4697
▁pawn	-11.4697
pilot	-11.4698
formed	-11.4699
Ford	-11.4699
▁chemical	-11.47
▁puzzle	-11.4701
▁icons	-11.4702
Ice	-11.4702
▁cowboy	-11.4703
ero	-11.4706
stop	-11.4711
▁Sound	-11.4712
▁Monster	-11.4715
▁citizen	-11.4715
▁Kar	-11.4716
▁jet	-11.472
▁Fo	-11.4721
▁vo	-11.4725
▁Garr	-11.4728
▁dr	-11.4729
▁lion	-11.4731
ara	-11.4731
▁shoes	-11.4732
▁Nim	-11.4733
▁Meyer	-11.4735
▁prism	-11.474
▁belong	-11.4741
▁square	-11.4744
▁clue	-11.4745
▁Hidd	-11.4746
▁beast	-11.4748
®	-11.4753
LA	-11.4754
▁emotion	-11.4756
▁insur	-11.4768
▁vice	-11.477
▁Friend	-11.4774
▁soar	-11.4782
▁Min	-11.4786
▁Cara	-11.4787
years	-11.4788
▁reserve	-11.4793
owski	-11.4797
▁forth	-11.4812
ram	-11.4813
▁Sr	-11.4821
loaded	-11.4822
▁wheel	-11.4827
mm	-11.4831
▁explorer	-11.4836
NT	-11.4844
autobiographic	-11.4847
▁listen	-11.4851
▁Sig	-11.4856
▁awake	-11.4856
▁entertain	-11.4858
cher	-11.4859
▁miraculous	-11.486
▁Colombia	-11.486
▁unwitting	-11.4861
▁immediate	-11.4861
▁masterful	-11.4867
▁weigh	-11.4872
▁Gru	-11.4874
▁sixteen	-11.4874
▁hu	-11.4875
▁confession	-11.4875
▁nurses	-11.4877
▁guitar	-11.4878
▁Executive	-11.4879
▁Aurora	-11.4879
▁Cinderella	-11.4879
▁Duvall	-11.4879
▁Lecter	-11.4879
▁McKenzie	-11.4879
▁Nebraska	-11.4879
▁Oyelowo	-11.4879
▁Quentin	-11.4879
▁Salvador	-11.4879
▁Sarsgaard	-11.4879
▁Voorhees	-11.4879
▁accomplice	-11.4879
▁carnival	-11.4879
▁consecutive	-11.4879
▁controversy	-11.4879
▁distraught	-11.4879
▁encroach	-11.4879
▁garbage	-11.4879
▁ghetto	-11.4879
▁inextricabl	-11.4879
▁irrepressibl	-11.4879
▁jeopardy	-11.4879
▁library	-11.4879
▁satellite	-11.4879
▁tragedies	-11.4879
▁unresolved	-11.4879
▁unscrupulous	-11.4879
▁vehicle	-11.4879
▁vendetta	-11.4879
▁Glasgow	-11.4879
▁Hamburg	-11.4879
▁Skywalker	-11.4879
▁Wisconsin	-11.4879
▁appetite	-11.4879
▁elegant	-11.4879
▁naïve	-11.4879
▁vessel	-11.4879
▁uplifting	-11.4879
▁YouTube	-11.4879
Picturehouse	-11.4879
▁opulen	-11.4879
▁magnate	-11.4879
▁Express	-11.4879
▁biopic	-11.4879
▁activism	-11.4879
▁Manchester	-11.4879
▁cutthroat	-11.4879
**	-11.4879
▁Glazer	-11.4879
▁overdose	-11.4879
▁Freud	-11.4879
▁example	-11.4879
▁veterinarian	-11.4879
▁convenience	-11.4879
▁Patterson	-11.4879
▁1982	-11.4879
▁vocal	-11.4879
▁NBA	-11.4879
▁blizzard	-11.4879
▁hatred	-11.4879
▁Bourne	-11.4879
▁anthropologist	-11.4879
▁Underground	-11.4879
▁biologist	-11.4879
▁economy	-11.4879
▁probably	-11.4879
▁Wrong	-11.4879
▁duties	-11.4879
▁illusion	-11.4879
▁Crowley	-11.4879
▁superstardom	-11.4879
▁Mormon	-11.4879
▁Veteran	-11.4879
▁1956	-11.4879
▁Fischer	-11.4879
▁Mediterranean	-11.4879
▁Ritchie	-11.4879
▁1952	-11.4879
▁Pratt	-11.4879
▁Hahn	-11.4879
▁UFO	-11.4879
▁Baxter	-11.4879
▁Doyle	-11.488
▁judgment	-11.488
▁chamber	-11.488
▁Karim	-11.488
▁Ninja	-11.488
▁Machine	-11.488
▁immersive	-11.488
▁Efron	-11.488
Paranormal	-11.488
▁specifically	-11.488
▁Reagan	-11.488
▁Gallery	-11.488
▁revival	-11.488
▁Silk	-11.488
▁Teen	-11.488
▁bodyguard	-11.488
▁1800	-11.488
▁discuss	-11.488
▁bunch	-11.488
▁Swift	-11.488
▁backwoods	-11.488
▁propaganda	-11.4881
▁looms	-11.4881
▁Appalachian	-11.4881
▁Yorkshire	-11.4881
▁Darwin	-11.4881
▁IRA	-11.4881
▁Mercer	-11.4881
▁barren	-11.4881
▁comedies	-11.4881
▁Wheeler	-11.4881
drenched	-11.4881
▁Archer	-11.4882
▁royalty	-11.4882
▁MIT	-11.4882
▁MTV	-11.4882
▁brothel	-11.4882
▁Rockwell	-11.4882
▁draft	-11.4883
▁easier	-11.4883
▁Candy	-11.4883
▁stint	-11.4883
▁Edith	-11.4883
▁humiliation	-11.4884
▁necessary	-11.4884
▁Honey	-11.4884
▁unlucky	-11.4885
▁moonlight	-11.4885
▁hectic	-11.4885
▁settlement	-11.4885
Shrek	-11.4885
▁mythology	-11.4886
▁Teller	-11.4886
▁wrapped	-11.4887
Camil	-11.4887
▁adoption	-11.4887
▁sorcerer	-11.4887
▁Wanted	-11.4887
▁Arkin	-11.4889
▁shrink	-11.489
▁Spade	-11.4891
▁mention	-11.4891
▁surrogate	-11.4891
▁exercise	-11.4891
▁Sparks	-11.4892
▁dispatched	-11.4894
▁McAvoy	-11.4895
▁Mirren	-11.4895
▁Yelchin	-11.4895
▁Perkins	-11.4895
▁Swinton	-11.4895
▁Foreign	-11.4895
▁presidency	-11.4895
▁scarred	-11.4895
▁consultant	-11.4895
▁steady	-11.4895
▁Salem	-11.4895
▁Harbor	-11.4895
▁Swank	-11.4896
▁Warrior	-11.4896
▁lush	-11.4896
Finn	-11.4897
▁Knightley	-11.4898
▁Torres	-11.4898
▁Colton	-11.4899
▁fascinated	-11.4899
▁CW	-11.4899
ale	-11.4899
▁Half	-11.49
▁Sawyer	-11.49
▁Bernal	-11.49
▁adaption	-11.49
▁Morton	-11.4901
▁Persian	-11.4901
▁peers	-11.4901
▁Nigeria	-11.4901
▁Sheila	-11.4901
▁Wales	-11.4903
▁Later	-11.4904
▁prefer	-11.4904
▁interaction	-11.4904
▁Sci	-11.4904
▁Heroes	-11.4904
▁Kang	-11.4904
▁afford	-11.4906
▁glass	-11.4906
Donnell	-11.4907
▁Cook	-11.4908
▁missionary	-11.4908
▁ratings	-11.4908
▁Station	-11.4908
▁Santos	-11.4908
▁underway	-11.4909
▁sketches	-11.491
▁resurfaces	-11.4911
▁Doc	-11.4912
▁screenplay	-11.4913
▁Lilly	-11.4913
▁wiped	-11.4914
▁Greer	-11.4914
lover	-11.4914
cked	-11.4914
▁hypnotic	-11.4915
▁Ronan	-11.4915
▁José	-11.4917
▁Kudrow	-11.4917
▁Ivan	-11.4917
▁Diamond	-11.4917
▁regard	-11.4917
▁Frost	-11.4917
▁Cheryl	-11.4917
▁Fiona	-11.4918
Vig	-11.4918
▁implant	-11.4918
▁ranger	-11.4919
▁Connelly	-11.4919
▁Bruno	-11.4919
▁Ritter	-11.4919
▁Self	-11.492
▁surfing	-11.492
▁snowy	-11.4922
▁heartland	-11.4923
▁Tri	-11.4923
▁Weaving	-11.4924
▁Levy	-11.4924
▁Youth	-11.4926
elli	-11.4926
▁Rex	-11.4929
▁pilots	-11.493
▁sort	-11.493
▁preci	-11.4931
▁anxious	-11.4933
▁Sanders	-11.4934
▁observed	-11.4934
▁segments	-11.4934
▁Bang	-11.4937
▁Block	-11.4938
▁ignore	-11.4938
ilicon	-11.494
▁Broderick	-11.494
rlock	-11.4942
Epps	-11.4942
▁Downey	-11.4943
▁Laurent	-11.4943
▁cats	-11.4944
▁ruined	-11.4945
▁Gail	-11.4946
▁march	-11.4949
itable	-11.4949
▁Foxx	-11.4951
▁entrust	-11.4955
▁comet	-11.4955
▁dreamer	-11.4956
▁Fin	-11.4956
ée	-11.4957
▁Carlyle	-11.4963
▁Hook	-11.4966
▁seventh	-11.4967
▁stopping	-11.497
▁interact	-11.497
▁Strike	-11.4971
▁Newton	-11.4975
▁embraced	-11.4976
▁Grow	-11.4977
▁Burn	-11.4978
▁tests	-11.4979
▁Oh	-11.4985
▁Holt	-11.4986
▁Norton	-11.499
ternal	-11.4991
▁Was	-11.4992
▁Benedict	-11.4992
▁Avery	-11.4992
▁Vika	-11.4995
▁Romeo	-11.4995
omi	-11.4996
otherworld	-11.4998
▁Fey	-11.4999
▁Records	-11.4999
▁healthy	-11.5002
va	-11.5004
▁Sergi	-11.5004
▁enthusiastic	-11.5005
tion	-11.5005
OV	-11.5005
▁saying	-11.5008
▁Thornton	-11.5009
▁observe	-11.501
▁Tiffany	-11.501
itz	-11.5012
oretta	-11.5013
▁Helena	-11.5015
▁Horn	-11.5015
▁villagers	-11.5017
pecul	-11.5019
He	-11.502
▁48	-11.5021
▁trailer	-11.5023
▁fling	-11.5023
ota	-11.5024
▁bullies	-11.5024
▁Harlan	-11.5024
▁assert	-11.5026
▁announce	-11.5026
▁doubts	-11.5026
▁stern	-11.5026
▁bandits	-11.5027
thing	-11.5029
▁Jet	-11.503
▁Booth	-11.5031
▁br	-11.5034
▁Lyn	-11.5035
▁Hurt	-11.5037
▁Elsa	-11.5041
Radio	-11.5042
▁Crown	-11.5044
▁requires	-11.5046
▁recovered	-11.5047
▁loveless	-11.5049
▁Frog	-11.505
▁Tree	-11.5053
▁Natasha	-11.5055
▁Cu	-11.5055
▁devil	-11.5056
nal	-11.5059
▁mood	-11.506
▁schoolgirl	-11.506
ky	-11.5061
▁laughs	-11.5061
▁Asian	-11.5063
▁Meyers	-11.5064
▁options	-11.5065
llow	-11.5065
▁sensual	-11.5068
▁Neill	-11.5068
Miles	-11.5069
▁watche	-11.5074
▁Here	-11.5075
▁entrance	-11.5076
▁rooms	-11.5084
▁basic	-11.5089
absorbed	-11.509
▁wrestle	-11.5091
iled	-11.5093
▁Den	-11.5097
▁Carlos	-11.5097
▁Aubrey	-11.5101
▁ward	-11.5105
▁parenting	-11.5108
▁Baron	-11.5113
▁Paramount	-11.5116
▁Pink	-11.5117
▁Low	-11.5121
▁Friends	-11.5122
claimed	-11.5123
▁Cool	-11.5126
sa	-11.5134
▁feed	-11.5136
▁related	-11.514
▁Wick	-11.5143
▁electrif	-11.5148
▁maca	-11.5156
▁conflicting	-11.5157
owing	-11.5157
▁Bale	-11.5159
▁bat	-11.5164
▁Em	-11.5169
▁united	-11.517
▁Magic	-11.5171
▁complet	-11.5172
▁Jung	-11.5173
▁Bradley	-11.5176
ass	-11.5181
▁prep	-11.5182
▁entering	-11.5191
▁Rangers	-11.5192
▁dynamics	-11.5193
▁Tale	-11.5196
▁Si	-11.5196
hold	-11.5196
▁Berg	-11.5197
▁alarm	-11.52
▁robbers	-11.5201
▁trac	-11.5204
!"	-11.521
▁testing	-11.5211
▁Cl	-11.5215
▁Zoo	-11.5218
▁successfully	-11.5235
▁institutions	-11.524
Geoff	-11.5243
ei	-11.5254
▁Irons	-11.5255
gle	-11.526
range	-11.5264
useum	-11.5265
▁autobiographic	-11.5266
▁Adrian	-11.5266
▁extensi	-11.5268
▁McCa	-11.5274
unborn	-11.5274
▁solid	-11.5276
▁sharks	-11.5277
▁possessions	-11.5279
▁manic	-11.5281
▁Lion	-11.5284
Dirty	-11.5284
▁indie	-11.5285
lock	-11.5286
▁groups	-11.5287
▁Gems	-11.529
mount	-11.5293
▁$1	-11.5295
▁Budd	-11.5304
▁funds	-11.5306
ugg	-11.5307
▁collar	-11.5308
▁Gad	-11.5311
nton	-11.5314
▁archive	-11.5315
▁beats	-11.5315
▁Joann	-11.5324
▁convicts	-11.5324
▁boo	-11.5326
▁Ring	-11.5327
lana	-11.5334
▁60-	-11.534
▁Ren	-11.5342
looking	-11.5342
▁spreads	-11.5348
▁tribes	-11.535
▁Bil	-11.5352
ran	-11.5362
▁prostitutes	-11.5363
▁Wit	-11.5364
▁Off	-11.5368
too	-11.5371
▁rat	-11.5373
▁myths	-11.5376
▁Step	-11.5377
▁collaborate	-11.5378
▁questioning	-11.5383
gged	-11.539
▁Barb	-11.5403
tra	-11.5403
▁pe	-11.5404
gging	-11.5411
▁Beau	-11.5412
▁1973.	-11.5413
▁rowd	-11.5421
▁grappl	-11.5421
▁shine	-11.5421
▁Blu	-11.5424
▁Train	-11.5426
▁Bra	-11.5426
▁rul	-11.5427
▁scores	-11.5433
▁performers	-11.5437
▁Ship	-11.545
▁Frances	-11.5452
care	-11.5461
▁Madd	-11.5467
rash	-11.5472
als	-11.5475
▁lawyers	-11.5479
▁Brie	-11.5482
▁Knights	-11.5487
ida	-11.5488
▁te	-11.5491
▁charms	-11.5492
pert	-11.5493
film	-11.55
own	-11.5507
ado	-11.5512
Isabel	-11.5514
7	-11.5514
ace	-11.5517
▁covering	-11.5518
Anton	-11.5525
van	-11.553
▁breath	-11.5532
▁ban	-11.5534
▁Whe	-11.5535
ose	-11.5535
▁require	-11.5539
▁Indig	-11.554
Gooding	-11.5541
▁schedule	-11.5542
ren	-11.5548
Emil	-11.5553
▁videos	-11.5557
terior	-11.5558
▁Yi	-11.5558
▁orphans	-11.556
▁finale	-11.5564
wick	-11.5567
tel	-11.5569
res	-11.5574
hat	-11.5579
instead	-11.5581
fel	-11.5585
two	-11.5588
▁Anders	-11.5593
▁sol	-11.5599
▁cater	-11.5599
away	-11.5604
▁culminat	-11.5605
▁Wing	-11.5605
ago	-11.5609
zing	-11.5609
nik	-11.5609
▁Kin	-11.5613
▁weed	-11.5613
Me	-11.5618
▁fat	-11.562
▁Arts	-11.5621
▁Might	-11.5623
▁Af	-11.5634
roy	-11.5637
▁memoirs	-11.5639
▁Quall	-11.5643
▁pin	-11.565
▁Marcel	-11.5651
Chi	-11.5655
▁diver	-11.5661
mber	-11.5673
▁aut	-11.5673
▁Hou	-11.5674
ah	-11.5675
▁accounts	-11.5683
▁manipulat	-11.5687
▁kings	-11.5692
▁queens	-11.5695
▁shipwreck	-11.5695
ured	-11.5695
ich	-11.5702
▁fel	-11.5702
uous	-11.5704
▁govern	-11.5707
▁thirst	-11.5709
Tye	-11.5714
tude	-11.5724
▁Roos	-11.5728
▁Spi	-11.5733
▁Sm	-11.5733
▁Bor	-11.5735
Or	-11.574
▁vs	-11.5747
▁dealings	-11.5775
mon	-11.5788
▁Gill	-11.5795
qui	-11.5801
tale	-11.5807
▁tenaci	-11.5808
Jenn	-11.5812
car	-11.5817
ox	-11.5825
▁Baz	-11.583
▁prima	-11.5832
▁wield	-11.5833
▁notion	-11.5834
walk	-11.5835
trip	-11.5837
El	-11.5842
▁clos	-11.5848
▁tempt	-11.5848
fall	-11.5849
▁costume	-11.585
▁journal	-11.5853
ments	-11.5856
&#	-11.5857
Salma	-11.586
Den	-11.586
▁Starr	-11.5865
Roberts	-11.5866
Ga	-11.5868
▁elder	-11.5873
André	-11.5875
▁mar	-11.5883
sister	-11.5884
erial	-11.5885
▁giants	-11.589
control	-11.5891
Hollywood	-11.5891
vo	-11.5892
case	-11.5893
▁philosoph	-11.5898
Big	-11.59
Kristin	-11.5903
▁centr	-11.5904
è	-11.5907
▁char	-11.591
Elliot	-11.5911
▁premiere	-11.5911
United	-11.5912
Cowboy	-11.5914
▁culprit	-11.5915
shaw	-11.5916
▁industrialist	-11.5916
female	-11.5916
▁erupt	-11.5916
▁backpack	-11.5916
Box	-11.5917
nall	-11.5919
▁Pepper	-11.592
▁diner	-11.592
Keanu	-11.5921
▁assume	-11.5921
▁sequence	-11.5924
▁demand	-11.5925
Mackenzie	-11.5925
person	-11.5926
Gerald	-11.5927
Jordan	-11.5928
keeper	-11.5928
▁Soldier	-11.5928
í	-11.5928
▁tattoo	-11.593
▁airplane	-11.593
Nicholson	-11.593
Hackman	-11.593
▁spider	-11.5931
▁mu	-11.5931
conscious	-11.5931
Sophia	-11.5933
Natasha	-11.5933
Claire	-11.5933
Cynthia	-11.5933
Travolta	-11.5934
Sofia	-11.5934
Laurence	-11.5934
Carrie	-11.5934
Wahlberg	-11.5935
Sharon	-11.5935
Gibson	-11.5935
Cohen	-11.5935
Hopkins	-11.5935
Affleck	-11.5935
Kurt	-11.5935
Sydney	-11.5935
Joshua	-11.5935
Space	-11.5936
Ralph	-11.5936
▁Voice	-11.5936
▁opponent	-11.5936
▁Lor	-11.5936
▁cheerleader	-11.5937
▁entrepreneur	-11.594
drinking	-11.5941
challenged	-11.5942
▁Ven	-11.5946
▁warlord	-11.5946
Marine	-11.5946
familiar	-11.5946
▁finger	-11.5947
▁Simpson	-11.5947
▁hardship	-11.5948
Lot	-11.5949
onald	-11.5954
dale	-11.5955
▁Comic	-11.5955
▁tenant	-11.5955
▁riddle	-11.5956
struck	-11.5957
▁advocate	-11.5958
▁Win	-11.5959
▁urg	-11.5966
▁del	-11.5967
erson	-11.5968
▁emerg	-11.5975
▁Dami	-11.5975
lled	-11.5977
Joey	-11.5981
▁Eye	-11.5981
guard	-11.5981
▁liberate	-11.5984
Chloe	-11.599
sea	-11.599
▁emba	-11.599
▁doubt	-11.6005
▁monkey	-11.6007
▁Nan	-11.6011
Air	-11.6013
▁fabric	-11.6013
▁Bee	-11.6019
▁plain	-11.6022
hairs	-11.6032
▁demo	-11.6034
cool	-11.6035
▁cataclysm	-11.6039
▁Wei	-11.6046
▁29	-11.6049
▁Tell	-11.6055
Mads	-11.6058
▁Marco	-11.6065
uri	-11.6066
▁sad	-11.6068
uch	-11.6069
▁Martine	-11.6075
▁employ	-11.6075
▁protégé	-11.6076
▁Dante	-11.608
elle	-11.6081
hu	-11.6083
▁numb	-11.6088
pound	-11.609
Haile	-11.6093
▁rabbi	-11.6095
▁Cambodia	-11.6095
Vin	-11.6096
ique	-11.6102
nosed	-11.6103
▁engine	-11.6106
Fran	-11.6108
▁assassinate	-11.6109
▁privilege	-11.6119
ander	-11.6119
▁Command	-11.6122
▁cheerlead	-11.6122
▁Dis	-11.6124
▁Rahim	-11.6124
▁Slate	-11.6125
▁Tur	-11.6125
▁counsel	-11.6125
▁dirt	-11.6127
▁Egypt	-11.6128
▁Olive	-11.6128
▁kaleidoscop	-11.6129
▁razor	-11.6129
▁Minnesota	-11.6129
▁wheelchair	-11.6129
▁Ambassador	-11.6129
▁Astronaut	-11.6129
▁Bangkok	-11.6129
▁Bucharest	-11.6129
▁Carmichael	-11.6129
▁Cotillard	-11.6129
▁FOX	-11.6129
▁Kermit	-11.6129
▁Kubrick	-11.6129
▁Merchant	-11.6129
▁Sedgwick	-11.6129
▁Senegal	-11.6129
▁Sudeikis	-11.6129
▁Sweeney	-11.6129
▁Vladimir	-11.6129
▁adversaries	-11.6129
▁ballerina	-11.6129
▁colossal	-11.6129
▁conclusion	-11.6129
▁deliberate	-11.6129
▁equipment	-11.6129
▁intrepid	-11.6129
▁marathon	-11.6129
▁monumental	-11.6129
▁predecessor	-11.6129
▁procedure	-11.6129
▁semester	-11.6129
▁unbridl	-11.6129
▁visceral	-11.6129
▁Indonesia	-11.6129
▁Ortega	-11.6129
▁Prescott	-11.6129
▁celebrities	-11.6129
▁engulf	-11.6129
▁explanation	-11.6129
▁melodrama	-11.6129
▁monastery	-11.6129
▁Armando	-11.6129
▁Latifah	-11.6129
▁Ramirez	-11.6129
▁Velvet	-11.6129
▁Winchester	-11.6129
▁wisdom	-11.6129
▁007	-11.6129
▁Entertainer	-11.6129
▁Fortune	-11.6129
▁concoct	-11.6129
▁Buddhist	-11.6129
▁Dunbar	-11.6129
▁unhinged	-11.6129
▁Control	-11.6129
▁Sanchez	-11.6129
▁Deutch	-11.6129
▁festivities	-11.6129
▁dedication	-11.6129
▁precarious	-11.6129
▁Belfast	-11.6129
▁Denmark	-11.6129
▁dissolution	-11.6129
▁unveil	-11.6129
▁electronic	-11.6129
▁rugby	-11.6129
▁Lambert	-11.6129
▁agencies	-11.6129
▁presumed	-11.6129
▁Bravo	-11.6129
▁grandeur	-11.6129
▁1938	-11.6129
▁Desert	-11.6129
▁Pullman	-11.6129
▁knife	-11.6129
▁Transformers	-11.6129
▁Mulligan	-11.6129
▁Sugar	-11.6129
▁dismay	-11.6129
▁ladder	-11.6129
▁Horgan	-11.6129
▁clique	-11.6129
▁familial	-11.6129
▁subculture	-11.6129
▁Tatum	-11.6129
▁1959	-11.6129
▁1966	-11.6129
▁circuit	-11.6129
▁transformative	-11.6129
▁Flint	-11.6129
▁Marlowe	-11.6129
▁Ripper	-11.6129
▁Savannah	-11.6129
▁bunker	-11.6129
▁Experience	-11.6129
▁compassion	-11.6129
▁freelance	-11.6129
▁gothic	-11.6129
▁Patrol	-11.6129
▁werewolf	-11.6129
▁1961	-11.6129
▁jaded	-11.6129
▁pocket	-11.6129
▁chemistry	-11.6129
▁railway	-11.6129
▁Dixon	-11.6129
▁Goodwin	-11.6129
▁harassment	-11.6129
▁1936	-11.613
▁Stuart	-11.613
▁Ridge	-11.613
▁lunch	-11.613
▁Lycan	-11.613
▁Rouge	-11.613
▁Beavis	-11.613
barred	-11.613
▁fairytale	-11.613
▁deputy	-11.613
▁Iceland	-11.613
▁Crane	-11.613
▁Warsaw	-11.613
▁THE	-11.613
▁Sunset	-11.613
▁negotiator	-11.613
▁cartoonist	-11.613
▁eliminating	-11.613
▁Peele	-11.613
▁reservation	-11.613
▁courtroom	-11.613
▁Reluctantly	-11.613
▁streetwise	-11.613
▁hippie	-11.613
▁dreary	-11.613
▁devastation	-11.613
▁overthrow	-11.6131
▁Bernie	-11.6131
▁Novak	-11.6131
▁ordeal	-11.6131
▁valet	-11.6131
▁overprotective	-11.6131
▁Bigfoot	-11.6131
▁crucial	-11.6131
▁overshadow	-11.6131
▁appointment	-11.6131
▁Jensen	-11.6131
▁Delta	-11.6131
▁Fanny	-11.6131
▁clueless	-11.6132
▁Greenfield	-11.6132
▁amusing	-11.6132
dolf	-11.6132
▁Darkness	-11.6132
▁robberies	-11.6132
▁Jungle	-11.6132
▁deported	-11.6132
▁Tiger	-11.6132
▁trendy	-11.6132
▁harness	-11.6132
▁Lebanon	-11.6132
▁Galactic	-11.6132
▁decent	-11.6132
▁excited	-11.6133
▁classroom	-11.6133
▁Algerian	-11.6133
▁Bomb	-11.6133
▁slick	-11.6133
▁android	-11.6133
▁Rosie	-11.6133
▁wallet	-11.6133
▁correspondent	-11.6133
▁admitted	-11.6133
▁Brennan	-11.6133
▁unrelated	-11.6133
▁Heights	-11.6133
▁fulfillment	-11.6134
▁Payne	-11.6134
Arc	-11.6134
▁eighteen	-11.6134
▁Fletcher	-11.6134
▁Samberg	-11.6134
▁Altman	-11.6134
▁anymore	-11.6134
▁Keller	-11.6134
▁frenzy	-11.6135
▁unjust	-11.6135
▁Fernando	-11.6135
▁downfall	-11.6135
▁swallow	-11.6135
▁quality	-11.6135
box	-11.6135
urro	-11.6136
▁soulful	-11.6136
▁Flora	-11.6136
▁Argentine	-11.6137
▁decadent	-11.6137
▁cherished	-11.6138
▁Trier	-11.6139
▁Marley	-11.6139
▁Brenda	-11.6139
▁probing	-11.6139
▁difficulties	-11.6139
▁Monk	-11.614
▁autobiography	-11.6141
▁adoring	-11.6141
▁butcher	-11.6142
▁madman	-11.6142
▁racist	-11.6143
▁Parsons	-11.6143
▁crippled	-11.6144
▁flashbacks	-11.6144
▁Sometimes	-11.6144
▁contractor	-11.6144
▁infatuated	-11.6144
▁ancestr	-11.6145
▁delicate	-11.6145
▁choir	-11.6145
▁fortunes	-11.6146
▁skull	-11.6146
▁alienated	-11.6146
▁Circle	-11.6146
▁colonel	-11.6146
▁Tanya	-11.6146
▁unwa	-11.6147
▁Johansson	-11.6147
▁Cecilia	-11.6147
▁interg	-11.6147
▁Everybody	-11.6147
▁Illinois	-11.6147
▁clothes	-11.6147
▁policy	-11.6147
▁constructed	-11.6147
▁Tower	-11.6147
▁inevitable	-11.6147
▁Callahan	-11.6148
▁optimistic	-11.6148
▁Number	-11.6148
▁physicist	-11.6149
▁jolt	-11.6149
▁Escap	-11.6149
▁Colombian	-11.615
▁blurred	-11.615
▁Rabbit	-11.615
▁robotic	-11.615
▁atmospheric	-11.615
▁miraculously	-11.6151
▁feat	-11.6151
▁Pride	-11.6151
▁degree	-11.6151
▁pub	-11.6152
▁gentleman	-11.6152
▁Puss	-11.6153
▁repeated	-11.6153
▁Whale	-11.6153
▁reflection	-11.6154
▁Schrei	-11.6155
migrant	-11.6155
▁fever	-11.6155
▁angst	-11.6156
▁indeli	-11.6156
▁Diggs	-11.6157
▁invent	-11.6157
Tara	-11.6158
▁blade	-11.6158
▁Drake	-11.6159
▁warden	-11.616
▁gap	-11.6161
▁charmer	-11.6162
▁genocide	-11.6162
▁shield	-11.6163
▁laborer	-11.6164
▁Peterson	-11.6164
▁authority	-11.6165
▁thread	-11.6165
credibly	-11.6165
defy	-11.6167
▁Minutes	-11.6167
▁Helms	-11.6168
▁Stevenson	-11.6168
ms	-11.6169
▁Turt	-11.617
▁outbreak	-11.617
▁convert	-11.617
▁Hayek	-11.6172
▁Pfeiffer	-11.6172
▁Sterling	-11.6172
▁Rey	-11.6172
▁Jaime	-11.6172
▁rally	-11.6173
▁Englishman	-11.6173
King	-11.6173
▁Bianca	-11.6173
▁Univers	-11.6174
▁entry	-11.6175
▁twentieth	-11.6175
▁Cooke	-11.6177
▁Piper	-11.6177
▁metropolis	-11.6177
▁rousing	-11.6177
▁perpetual	-11.6178
▁melt	-11.6178
▁Davidson	-11.6179
▁lawman	-11.6179
▁sustain	-11.6179
▁tail	-11.6182
▁intensifies	-11.6183
▁ripped	-11.6186
▁canine	-11.6188
▁stepson	-11.6189
▁Aires	-11.6189
▁widely	-11.619
▁taboos	-11.6191
▁interpret	-11.6194
▁husbands	-11.6195
▁consult	-11.6196
▁saddle	-11.6196
▁slash	-11.6198
▁wartime	-11.6205
▁rev	-11.6209
▁Silent	-11.6209
▁Mindy	-11.621
▁psyche	-11.621
▁rejected	-11.6214
▁11,	-11.6215
▁blown	-11.6215
▁meat	-11.6216
▁traffickers	-11.6216
▁32-	-11.6217
▁achievements	-11.6217
▁Rees	-11.6218
▁honesty	-11.6219
▁Sho	-11.622
uffalo	-11.622
ady	-11.622
▁sect	-11.6221
▁headlines	-11.6222
▁Angus	-11.6224
▁Snipes	-11.6224
Léa	-11.6224
▁savvy	-11.6225
▁Arquette	-11.6226
provoking	-11.6226
▁Fuller	-11.6229
▁33	-11.6229
▁Portman	-11.6229
▁dressed	-11.6229
▁Chow	-11.6232
▁commando	-11.6233
▁grid	-11.6234
je	-11.6237
borough	-11.6237
▁onboard	-11.624
▁Jeffr	-11.6241
▁sailors	-11.6241
▁touched	-11.6241
▁worship	-11.6246
▁fam	-11.6246
ichi	-11.6249
▁chased	-11.625
▁Dreyfus	-11.6251
▁Fraser	-11.6251
▁Von	-11.6251
▁nail	-11.6255
▁Farm	-11.6255
▁fl	-11.626
▁financially	-11.626
▁Michele	-11.6261
▁digs	-11.6262
Demi	-11.6263
▁Slo	-11.6264
▁Alexandra	-11.6267
▁Danielle	-11.6272
▁bind	-11.6273
▁Realiz	-11.6274
▁Gore	-11.6275
▁Kathleen	-11.6277
▁Blanchett	-11.6277
▁displace	-11.6278
tro	-11.6278
▁Quaid	-11.6279
▁Jasmi	-11.6279
▁traverse	-11.628
▁Lind	-11.6282
animated	-11.6284
sohn	-11.6285
educated	-11.6291
▁flirtatio	-11.6295
▁René	-11.6295
▁rats	-11.6297
ong	-11.6298
▁accuse	-11.6299
▁illuminate	-11.6301
▁News	-11.6301
▁scatter	-11.6301
▁Florence	-11.6302
▁Teresa	-11.6303
▁DiCaprio	-11.6304
▁Scarlet	-11.6304
▁guardians	-11.6307
ridge	-11.6308
evigny	-11.6309
▁tenants	-11.6309
▁relocate	-11.6314
bre	-11.6317
▁Archi	-11.6322
▁shockingly	-11.6322
▁beasts	-11.6327
▁Fate	-11.6333
▁Gay	-11.6333
▁Laurence	-11.6336
▁pizz	-11.6336
▁cosm	-11.6336
▁bubble	-11.6341
einfeld	-11.6341
▁Char	-11.6342
▁baron	-11.6344
▁speaking	-11.6344
wa	-11.6348
▁Claude	-11.6348
▁Mann	-11.6351
erman	-11.6351
ug	-11.6353
▁prospects	-11.6357
▁Streep	-11.6357
eek	-11.6358
▁Chast	-11.6361
loved	-11.6364
▁miracles	-11.6364
▁Judd	-11.6371
▁wine	-11.6374
▁9/11.	-11.6375
capable	-11.6375
▁biting	-11.6376
▁Dame	-11.6377
▁stress	-11.6378
▁Shel	-11.638
ric	-11.638
ummer	-11.6382
▁stash	-11.6383
▁Push	-11.6385
▁Danes	-11.6386
▁attic	-11.6388
▁Omar	-11.6389
▁Gere	-11.639
▁Schill	-11.6391
▁drove	-11.6395
"),	-11.6395
▁badly	-11.6401
▁unraveling	-11.6402
▁Kris	-11.6403
ys	-11.6403
▁Aviv	-11.6406
▁visitors	-11.6406
ranging	-11.6407
▁Mag	-11.6408
▁Iraqi	-11.6409
▁closely	-11.6411
▁drinks	-11.6422
▁bomber	-11.6425
▁Mor	-11.6429
▁Mina	-11.6432
▁Clear	-11.6434
▁mines	-11.6436
▁Haley	-11.6444
▁immers	-11.6445
mour	-11.6446
▁consume	-11.6447
body	-11.6448
▁ensnare	-11.6456
stood	-11.6457
edric	-11.6459
▁mutants	-11.646
▁convictions	-11.6463
▁Chau	-11.6464
▁Schoen	-11.6465
Emili	-11.6465
come	-11.6467
▁9-	-11.6467
Li	-11.6468
▁panick	-11.647
ternity	-11.6471
▁strangely	-11.6472
▁Browning	-11.6473
▁heists	-11.6478
▁muscle	-11.6479
We	-11.648
▁Awards	-11.6482
▁margin	-11.6482
▁Pole	-11.6486
▁crypt	-11.6487
▁ideals	-11.6492
▁fist	-11.6501
▁Cut	-11.6505
▁parking	-11.6506
▁expects	-11.6509
▁teller	-11.651
inger	-11.651
Rees	-11.6511
▁med	-11.6512
▁copy	-11.6513
▁Dae	-11.6514
▁politically	-11.6515
▁flow	-11.6518
cons	-11.6525
▁stick	-11.6529
▁arena	-11.6532
▁Mik	-11.654
▁Dunst	-11.6543
Shi	-11.6546
▁apes	-11.6548
▁Willy	-11.6556
24	-11.6559
mie	-11.656
organic	-11.6563
▁ally	-11.6564
dler	-11.6564
▁unsu	-11.657
▁greet	-11.6577
sm	-11.658
▁Za	-11.6581
▁systems	-11.6584
▁Jia	-11.6587
ims	-11.6591
▁infinite	-11.6593
rest	-11.6595
hose	-11.6598
▁Pac	-11.6599
▁rightful	-11.6602
ington	-11.6605
▁Penny	-11.6605
hl	-11.661
▁Chev	-11.6619
▁fiance	-11.6621
Alic	-11.6622
▁manipulate	-11.6624
Nol	-11.6625
▁Cora	-11.6632
▁shoe	-11.6635
ammy	-11.6641
▁joint	-11.6641
▁merc	-11.6642
▁Ir	-11.6645
hip	-11.6647
▁Qui	-11.6653
▁Marks	-11.6655
soo	-11.6656
erton	-11.6667
cusp	-11.6668
▁Winn	-11.6671
▁Op	-11.6674
high	-11.6675
▁devices	-11.6681
▁Dais	-11.6683
iz	-11.6689
▁Od	-11.6694
gh	-11.6698
▁Case	-11.6698
aine	-11.6701
dup	-11.6708
▁nations	-11.6718
▁Kent	-11.6719
2,	-11.6722
▁Henri	-11.6726
Elis	-11.6729
▁fugitives	-11.6731
▁Hugh	-11.6731
cap	-11.6736
▁Hungar	-11.6736
▁operate	-11.6736
▁Ou	-11.674
called	-11.6744
▁lawless	-11.6744
▁pu	-11.6745
▁Comb	-11.6746
▁accidents	-11.6752
MA	-11.6761
Pen	-11.6762
fly	-11.6765
civilized	-11.6767
Gene	-11.677
▁identi	-11.6772
▁Lab	-11.6772
mula	-11.6774
▁Faye	-11.6782
▁evangeli	-11.6782
sley	-11.6783
▁Mile	-11.6786
▁addition	-11.6788
cKay	-11.6794
▁organ	-11.6796
tically	-11.6798
▁Av	-11.6804
▁crossing	-11.6805
▁hum	-11.6809
ominee	-11.681
rez	-11.681
▁roar	-11.6814
ru	-11.6819
▁Bull	-11.6819
▁Abe	-11.6819
tering	-11.6821
▁contracts	-11.6834
surprisingly	-11.6838
▁moms	-11.6851
▁testimon	-11.6853
table	-11.6857
charged	-11.6858
▁Tu	-11.686
▁bid	-11.6861
▁robs	-11.6863
raged	-11.6867
sex	-11.687
▁Bern	-11.6871
▁Buen	-11.6874
try	-11.6877
iff	-11.6896
▁horses	-11.6898
Gillia	-11.69
▁Haze	-11.6901
▁thank	-11.6907
▁launche	-11.6909
LC	-11.6924
proof	-11.6927
ort	-11.6927
▁mock	-11.6928
tha	-11.6928
▁riches	-11.693
low	-11.6943
▁bombs	-11.6944
▁Kemp	-11.6951
▁Well	-11.6959
▁Clar	-11.696
▁Bur	-11.6964
▁Stat	-11.6967
Ky	-11.6975
ico	-11.6978
▁appointe	-11.6984
▁Sc	-11.6993
attered	-11.6995
▁argue	-11.6995
ome	-11.6997
Andi	-11.6998
tty	-11.7
▁Pin	-11.7008
natured	-11.7011
▁Lindo	-11.7014
▁observ	-11.7021
▁Hol	-11.7024
▁alike	-11.7025
▁Cove	-11.7029
ional	-11.7039
▁respond	-11.7041
▁incredibl	-11.7044
ellar	-11.7053
Mat	-11.706
▁Corps	-11.7061
father	-11.7061
▁Spa	-11.7063
▁mothers	-11.7064
▁murderers	-11.707
normal	-11.7085
▁Charl	-11.7086
▁admit	-11.7087
▁Mort	-11.7092
fe	-11.7093
▁ru	-11.7098
ates	-11.7101
ester	-11.7103
▁filming	-11.7105
▁utiliz	-11.7106
▁Ger	-11.7114
acious	-11.7124
first	-11.7126
▁interw	-11.7131
ett	-11.7133
▁Sar	-11.7134
adquarters	-11.7141
▁Bert	-11.7141
pter	-11.7142
race	-11.7144
oh	-11.7155
locking	-11.7157
22-	-11.7159
▁Whit	-11.716
omed	-11.7166
haired	-11.7169
▁Vis	-11.717
sey	-11.7178
▁pictures	-11.7178
si	-11.7185
money	-11.7186
rk	-11.719
wall	-11.7193
▁whisper	-11.7194
just	-11.7195
now	-11.7195
▁lett	-11.7196
▁Gabe	-11.7199
layers	-11.7199
▁pond	-11.72
▁neighborhoods	-11.7203
po	-11.7204
Evan	-11.7205
soldier	-11.7206
Marc	-11.7206
▁Zen	-11.7208
▁Alba	-11.7208
hail	-11.7214
9	-11.7215
▁LaBe	-11.7218
▁nest	-11.7221
been	-11.7222
▁Popp	-11.7235
▁thrive	-11.7238
▁Ste	-11.7238
▁burglar	-11.7241
▁Produc	-11.7244
infest	-11.7248
▁hood	-11.7254
▁Sy	-11.7257
eryl	-11.7259
▁pla	-11.7267
oth	-11.7267
▁shown	-11.7267
wise	-11.7269
▁sur	-11.7269
future	-11.727
▁rep	-11.7271
ating	-11.7275
its	-11.7283
Ra	-11.7285
both	-11.7288
omehow	-11.729
held	-11.7292
▁Sleep	-11.7294
rry	-11.7295
▁1945	-11.7296
nnaman	-11.7301
ichir	-11.7304
▁lows	-11.7306
▁Spirit	-11.7309
▁cage	-11.7315
▁resign	-11.7317
black	-11.7319
Keegan	-11.7321
Zachary	-11.7323
▁ears	-11.7329
you	-11.7329
Sebastia	-11.7331
Rory	-11.7337
mouth	-11.7341
▁Poli	-11.7341
▁skyscraper	-11.7341
zed	-11.7342
little	-11.7342
▁café	-11.7342
▁Animal	-11.7343
▁Incredible	-11.7346
Queen	-11.7348
Charles	-11.7348
▁Cobb	-11.7348
Nazi	-11.735
vampire	-11.735
▁philosopher	-11.735
Channing	-11.7353
Roman	-11.7353
Imogen	-11.7354
Bo	-11.7355
Margaret	-11.7357
Lawrence	-11.7357
▁paramedic	-11.7357
▁gunslinger	-11.7357
Carla	-11.7358
Clint	-11.7359
DiCaprio	-11.736
Oliver	-11.736
Teresa	-11.736
destructive	-11.736
grown	-11.736
Austin	-11.7361
Diego	-11.7361
Douglas	-11.7361
Barry	-11.7362
Murray	-11.7362
Stanley	-11.7362
Arnold	-11.7363
Harvey	-11.7363
Scarlet	-11.7363
Sundance	-11.7363
Vicky	-11.7363
Lola	-11.7363
nemesis	-11.7364
Florence	-11.7364
▁tyrant	-11.7365
▁stripper	-11.7365
season	-11.7366
▁bike	-11.7368
Over	-11.7368
▁historian	-11.7368
Neill	-11.7369
▁instinct	-11.7371
▁Muppet	-11.7371
Gabriell	-11.7371
Halle	-11.7374
▁Investigation	-11.7374
▁Shadow	-11.7375
▁dimension	-11.7376
Fred	-11.7377
meaning	-11.7377
pounding	-11.7379
▁essay	-11.7382
Stella	-11.7383
▁profiler	-11.7383
prepared	-11.7385
▁motive	-11.7387
traveling	-11.7388
▁oversee	-11.7388
hn	-11.7388
▁9/11	-11.7389
llo	-11.7393
▁Mak	-11.7397
▁crypti	-11.7398
feld	-11.7399
▁Ros	-11.7403
▁Glad	-11.7406
▁Bud	-11.7406
▁aspect	-11.7407
▁Bon	-11.7411
▁tip	-11.7411
▁Viking	-11.7416
shift	-11.7422
▁motivation	-11.7423
▁clone	-11.7426
▁camps	-11.7429
icking	-11.7431
▁belonging	-11.7432
▁ad	-11.7433
gender	-11.7435
▁surf	-11.7436
definitely	-11.7438
maid	-11.7441
▁fertil	-11.7441
▁bandit	-11.7445
▁Due	-11.7445
ears	-11.7445
cia	-11.7445
▁Vin	-11.7451
▁rider	-11.746
erence	-11.7463
ernan	-11.7465
Brent	-11.7466
▁Mayan	-11.7467
Hanks	-11.7469
▁nose	-11.747
▁aim	-11.7474
▁Pop	-11.7477
▁Ghost	-11.7477
Neal	-11.7479
▁cry	-11.7483
came	-11.7484
▁fool	-11.7484
▁intend	-11.7487
tle	-11.7488
▁Barris	-11.7492
▁Vega	-11.7493
▁Nicola	-11.7498
▁Trip	-11.7498
wald	-11.7501
abeth	-11.7515
▁specializ	-11.7516
▁Corner	-11.7518
▁Nola	-11.752
▁shatter	-11.7521
▁unexplain	-11.7522
▁Kai	-11.7523
▁Gabriell	-11.7523
onymous	-11.7524
start	-11.7525
▁mile	-11.7533
▁techno	-11.7533
▁oblivio	-11.7535
▁defiant	-11.7537
can	-11.7539
▁unsuccessful	-11.754
▁eventual	-11.754
ously	-11.7541
iness	-11.7542
▁Malone	-11.7543
Tribe	-11.7544
▁Ci	-11.7545
▁hustle	-11.7545
com	-11.7548
iblical	-11.7553
▁exhibit	-11.7553
▁specific	-11.7556
▁babysit	-11.7556
▁Viktor	-11.7557
▁Weiss	-11.7557
▁iconoclast	-11.7557
▁melanchol	-11.7557
▁Antichrist	-11.7557
▁Arkansas	-11.7557
▁Beijing	-11.7557
▁Budapest	-11.7557
▁Cuoco	-11.7557
▁Deneuve	-11.7557
▁Flanagan	-11.7557
▁Hunnam	-11.7557
▁Hussein	-11.7557
▁KGB	-11.7557
▁Madagascar	-11.7557
▁Pentagon	-11.7557
▁Samurai	-11.7557
▁Society	-11.7557
▁Thewlis	-11.7557
▁Ulysses	-11.7557
▁anxieties	-11.7557
▁congregation	-11.7557
▁egotistical	-11.7557
▁emperor	-11.7557
▁erratic	-11.7557
▁irresist	-11.7557
▁mercurial	-11.7557
▁paparazzi	-11.7557
▁quartet	-11.7557
▁sophomore	-11.7557
▁tantaliz	-11.7557
▁threshold	-11.7557
▁Berlanti	-11.7557
▁Marseille	-11.7557
▁McHale	-11.7557
▁McLaughlin	-11.7557
▁Wasikowska	-11.7557
▁Yakuza	-11.7557
▁gorilla	-11.7557
▁superstition	-11.7557
▁Desmond	-11.7557
▁Feldman	-11.7557
▁Linklater	-11.7557
▁dentist	-11.7557
▁eclecti	-11.7557
▁penguin	-11.7557
▁sordid	-11.7557
▁Cunningham	-11.7557
▁Spurlock	-11.7557
▁Zombie	-11.7557
▁prostitution	-11.7557
▁Armisen	-11.7557
▁Greenwich	-11.7557
▁Resident	-11.7557
▁scenario	-11.7557
▁seductress	-11.7557
▁chauffeur	-11.7557
▁Alpha	-11.7557
▁Cullen	-11.7557
▁McAdams	-11.7557
▁Riviera	-11.7557
▁Rudolph	-11.7557
▁Terminator	-11.7557
▁caregiver	-11.7557
▁curtain	-11.7557
▁creativity	-11.7557
▁deportation	-11.7557
▁Destiny	-11.7557
▁Schumer	-11.7557
▁1946	-11.7557
▁adversity	-11.7557
▁dimwitted	-11.7557
▁Apatow	-11.7558
▁Bernstein	-11.7558
▁Naples	-11.7558
▁Shakur	-11.7558
▁lockdown	-11.7558
▁Abraham	-11.7558
▁Haddish	-11.7558
▁Watergate	-11.7558
▁ingenious	-11.7558
▁expatriate	-11.7558
▁Cavill	-11.7558
▁NSA	-11.7558
▁Garrison	-11.7558
▁Madrid	-11.7558
▁Community	-11.7558
▁reincarnation	-11.7558
▁Division	-11.7558
▁Glory	-11.7558
▁Utopia	-11.7558
▁ingenuity	-11.7558
▁probation	-11.7558
▁dissatisfied	-11.7558
▁integrity	-11.7558
▁Canyon	-11.7558
▁Legion	-11.7558
▁1943	-11.7558
▁uproarious	-11.7558
▁Gulf	-11.7558
▁biology	-11.7558
▁sperm	-11.7558
▁homosexuality	-11.7558
▁Yellow	-11.7558
▁adrenaline	-11.7558
▁Reacher	-11.7558
▁impeccabl	-11.7558
▁idealism	-11.7558
▁columnist	-11.7558
▁Darcy	-11.7558
▁Midnight	-11.7558
▁Senate	-11.7558
▁Polanski	-11.7558
▁dictatorship	-11.7558
▁Mariachi	-11.7558
▁irresponsible	-11.7558
▁Sixteen	-11.7558
▁intact	-11.7558
▁Yoko	-11.7558
▁Factory	-11.7558
▁sanctuary	-11.7558
▁confusing	-11.7558
▁reception	-11.7558
▁departure	-11.7558
▁1951	-11.7558
▁Edmund	-11.7558
▁governess	-11.7558
▁alcoholism	-11.7558
▁1860	-11.7558
▁Gonzo	-11.7558
▁ceremony	-11.7558
▁hotshot	-11.7558
▁fairies	-11.7558
▁Creek	-11.7559
▁qualities	-11.7559
▁Arturo	-11.7559
▁Swanson	-11.7559
▁dramatization	-11.7559
▁gigantic	-11.7559
▁extinction	-11.7559
▁proposal	-11.7559
▁rehabilitation	-11.7559
▁Hassan	-11.7559
▁absurdist	-11.7559
▁viral	-11.7559
▁nationwide	-11.7559
▁envy	-11.7559
▁Stock	-11.7559
▁spontaneous	-11.7559
▁virtuoso	-11.7559
▁Merlin	-11.7559
▁dynasty	-11.7559
▁trajectory	-11.7559
▁Lorna	-11.7559
▁Tuscany	-11.7559
▁whereabouts	-11.7559
▁Mavis	-11.7559
▁acquire	-11.7559
▁Winnie	-11.7559
▁Admi	-11.7559
▁storyteller	-11.7559
▁yourself	-11.7559
▁electricity	-11.756
▁Valerie	-11.756
▁Beginning	-11.756
▁Moreno	-11.756
▁heavyweight	-11.756
▁Bowman	-11.756
▁Sudan	-11.756
▁banned	-11.756
▁essential	-11.756
▁Fowler	-11.756
▁Narnia	-11.756
garde	-11.756
▁Beauty	-11.756
▁Monday	-11.756
▁rodeo	-11.756
▁Normandy	-11.756
▁ridiculous	-11.756
▁replacement	-11.756
▁babysitting	-11.756
▁faraway	-11.756
▁branch	-11.756
▁Thwait	-11.7561
▁rigorous	-11.7561
▁armies	-11.7561
▁subtle	-11.7561
▁testament	-11.7561
▁documentaries	-11.7561
▁Bergman	-11.7561
▁telepath	-11.7561
▁Haiti	-11.7561
▁Marvin	-11.7561
▁MacFarlane	-11.7561
▁jury	-11.7561
▁Hartley	-11.7561
▁overlooked	-11.7561
▁McKay	-11.7561
▁heroism	-11.7561
▁arrangement	-11.7561
▁unconscious	-11.7561
▁Flash	-11.7562
▁Rubin	-11.7562
▁heaven	-11.7562
▁summit	-11.7562
▁hipster	-11.7562
▁Glover	-11.7562
▁Gerry	-11.7562
▁medicine	-11.7562
▁everybody	-11.7563
▁jock	-11.7563
▁Fantasy	-11.7563
▁Grimm	-11.7563
▁joyous	-11.7563
▁smile	-11.7563
▁motor	-11.7563
▁cream	-11.7563
▁conductor	-11.7564
▁rental	-11.7564
▁Roland	-11.7564
▁harmless	-11.7564
▁Godard	-11.7564
▁brotherhood	-11.7564
▁technical	-11.7564
▁Funny	-11.7565
▁boyhood	-11.7565
▁twilight	-11.7565
▁unmarried	-11.7565
▁banter	-11.7565
▁Lacy	-11.7565
▁Moose	-11.7566
▁smartest	-11.7566
▁Faith	-11.7567
▁Farmer	-11.7568
▁robbing	-11.7568
▁leaked	-11.7568
▁flies	-11.7569
▁Bunny	-11.7569
▁commuter	-11.7569
▁punish	-11.757
▁Mulan	-11.757
▁Urban	-11.757
Hurricane	-11.7571
▁Lemon	-11.7571
▁1,	-11.7571
▁Bound	-11.7571
▁trapping	-11.7572
▁Theresa	-11.7572
▁gunfighter	-11.7572
▁Report	-11.7572
▁Lorre	-11.7572
▁37	-11.7573
▁conceived	-11.7573
▁Gates	-11.7573
▁domain	-11.7573
▁Butcher	-11.7573
▁fading	-11.7573
▁skater	-11.7573
▁dominate	-11.7573
affirming	-11.7574
▁endeavor	-11.7574
▁graduating	-11.7574
▁Reyes	-11.7575
▁fatherhood	-11.7575
▁progresses	-11.7575
▁Benny	-11.7575
inhibit	-11.7576
▁complexit	-11.7576
▁comprehensi	-11.7577
▁Antoine	-11.7577
▁Mumbai	-11.7577
▁glam	-11.7577
▁Daphne	-11.7577
▁Chronicl	-11.7578
▁Ejiofor	-11.7578
▁Nanjiani	-11.7578
▁Brandt	-11.7578
▁Mortimer	-11.7578
▁Hulu	-11.7578
▁Hutch	-11.7578
▁harmony	-11.7578
▁Alyssa	-11.7578
▁Havana	-11.7578
▁McDonald	-11.7578
▁Henderson	-11.7578
▁Eze	-11.7578
▁Generation	-11.7578
▁godfather	-11.7578
▁Tripp	-11.7578
▁Huston	-11.7578
▁engaging	-11.7579
▁Finland	-11.7579
▁wannabe	-11.7579
▁Nikita	-11.7579
▁avail	-11.7579
▁Greenberg	-11.758
▁Shore	-11.758
▁businessmen	-11.758
▁canceled	-11.758
▁Yard	-11.758
▁starship	-11.7581
▁Tibet	-11.7581
▁Spelling	-11.7582
▁Rico	-11.7583
▁Byrd	-11.7583
▁intersection	-11.7583
▁import	-11.7583
▁Crew	-11.7584
▁Oct	-11.7585
▁compromised	-11.7585
▁whisked	-11.7585
▁Hedge	-11.7585
▁Drama	-11.7586
▁selfish	-11.7587
▁supportive	-11.7587
▁Ig	-11.7588
▁gaming	-11.759
▁Romance	-11.7591
▁choosing	-11.7591
▁smoothly	-11.7591
asterpiece	-11.7592
breakfast	-11.7593
▁restart	-11.7594
▁Citizen	-11.7595
▁Bolivia	-11.7595
▁rite	-11.7595
▁milk	-11.7596
▁childish	-11.7597
▁Louie	-11.7598
▁trucker	-11.7599
▁colonial	-11.76
▁temp	-11.76
▁fury	-11.76
▁renew	-11.7601
Ella	-11.7601
▁impulses	-11.7601
Kels	-11.7601
▁adrift	-11.7601
▁eighties	-11.7601
▁takeover	-11.7601
▁invented	-11.7602
▁spouses	-11.7602
▁worry	-11.7604
▁subsequently	-11.7604
▁persistent	-11.7604
▁operating	-11.7605
▁awful	-11.7605
▁racially	-11.7607
▁Kaling	-11.7607
▁Sandy	-11.7607
▁Bardem	-11.7607
▁Miriam	-11.7607
▁Santiago	-11.7607
▁Hernandez	-11.7607
▁Jorge	-11.7607
▁Klaus	-11.7607
▁Cliff	-11.7608
▁deposit	-11.7608
▁DeVito	-11.7609
▁Boots	-11.7609
▁psycho	-11.7609
▁skies	-11.7609
▁Schwartzman	-11.7609
neck	-11.761
▁Web	-11.7612
▁Emmet	-11.7612
▁updated	-11.7613
▁butler	-11.7613
▁storybook	-11.7613
▁revelat	-11.7613
▁Romano	-11.7613
▁prowl	-11.7613
▁absent	-11.7613
▁Truth	-11.7614
▁guts	-11.7615
▁badge	-11.7615
▁Monty	-11.7616
▁surfer	-11.7617
▁void	-11.7617
ego	-11.7618
elope	-11.7618
bu	-11.762
▁format	-11.7621
▁assembled	-11.7624
ouf	-11.7624
▁PR	-11.7624
▁Caine	-11.7624
▁refused	-11.7625
▁province	-11.7626
mmy	-11.7627
▁Mandy	-11.7627
▁whisk	-11.7627
▁Dax	-11.763
▁longest	-11.763
▁Leary	-11.763
▁suitors	-11.763
▁guilty	-11.7631
▁Bos	-11.7632
▁monks	-11.7632
▁spawn	-11.7633
▁Rocket	-11.7634
▁strictly	-11.7636
▁Clone	-11.7636
▁Ricci	-11.7638
▁Maguire	-11.7638
▁Fishburne	-11.7638
▁Whitaker	-11.7638
▁Pryce	-11.7638
▁divide	-11.764
▁shame	-11.7641
▁compulsive	-11.7641
▁decidedly	-11.7642
▁Releas	-11.7642
▁forties	-11.7642
▁storylines	-11.7644
▁felon	-11.7645
▁diary	-11.7645
▁Anti	-11.7646
▁onstage	-11.7648
▁coaxe	-11.7649
60	-11.7649
Stefani	-11.7649
▁Actor	-11.765
▁Gift	-11.765
Na	-11.765
▁Gran	-11.7651
▁Rhys	-11.7652
▁tools	-11.7652
▁apply	-11.7653
▁Wave	-11.7653
ions	-11.7654
▁mathematic	-11.7654
▁scour	-11.7654
lah	-11.7658
▁Artists	-11.7658
▁Met	-11.7658
▁Turtles	-11.766
▁yards	-11.766
▁Amina	-11.766
▁Luci	-11.7662
ller	-11.7662
▁Also	-11.7662
▁Skye	-11.7664
▁crowned	-11.7664
▁protector	-11.7669
▁Gavin	-11.7671
▁Abel	-11.7672
▁Fast	-11.7674
edevil	-11.7675
▁Forte	-11.7675
▁rites	-11.7676
▁scars	-11.7676
▁crazed	-11.7676
▁reconstruct	-11.7676
rincipal	-11.7678
▁Liza	-11.7679
▁Marx	-11.7681
▁Mayo	-11.7683
▁captors	-11.7684
▁files	-11.7689
din	-11.769
▁upset	-11.769
▁thrilled	-11.769
▁apathetic	-11.769
▁Accompan	-11.7691
▁sl	-11.7691
▁feuding	-11.7691
nier	-11.7694
lander	-11.7695
▁indict	-11.7696
▁Adrien	-11.7697
Finney	-11.7698
▁Cart	-11.7699
▁Diaz	-11.7699
▁probe	-11.77
▁Lana	-11.7703
sha	-11.7704
▁jokes	-11.7706
▁Table	-11.771
▁Task	-11.771
▁pages	-11.7712
lar	-11.7714
skar	-11.7716
▁Hamptons	-11.7717
pike	-11.7717
▁Rosa	-11.7719
▁Pie	-11.772
ão	-11.772
▁stepp	-11.7723
▁Peet	-11.7726
▁bl	-11.7728
▁simp	-11.7728
▁Job	-11.7729
▁review	-11.7729
▁Lei	-11.7731
duced	-11.7732
▁aspects	-11.7733
▁Patt	-11.7738
▁Leno	-11.7739
▁culminate	-11.7741
▁neon	-11.7742
emons	-11.7744
▁Fight	-11.7745
▁Investigations	-11.7745
▁occurs	-11.7745
▁fatale	-11.7746
▁instincts	-11.7746
▁Stella	-11.7747
▁Kal	-11.7748
▁makers	-11.7749
▁Brent	-11.7755
ls	-11.7758
▁miner	-11.776
▁Macy	-11.777
chael	-11.7773
▁Fl	-11.7774
▁warlords	-11.7775
▁Yun	-11.7777
▁divorcee	-11.7779
▁spite	-11.778
▁Wise	-11.7781
iah	-11.7782
croft	-11.7783
▁practical	-11.7787
▁scare	-11.7788
ix	-11.7788
▁classes	-11.779
bbie	-11.7792
ddled	-11.7792
▁Hackman	-11.7792
eeming	-11.7794
▁Nicholson	-11.7795
▁worthy	-11.7799
▁Dorn	-11.78
▁Demi	-11.7801
som	-11.7802
▁disenchant	-11.7803
▁proposes	-11.7805
▁upend	-11.7805
▁shore	-11.7805
▁please	-11.7806
scale	-11.7808
▁Forty	-11.7811
ization	-11.7818
▁organizer	-11.7818
▁photojournalist	-11.7822
▁Sylvester	-11.7823
▁Nu	-11.7826
cent	-11.7827
▁Gerard	-11.7832
▁corpses	-11.7832
▁reside	-11.7834
▁Neal	-11.784
▁Brea	-11.7842
▁psychiatr	-11.7846
ormant	-11.7859
▁museums	-11.786
▁narrates	-11.7866
pro	-11.7878
▁Trev	-11.7878
▁habits	-11.788
▁sw	-11.7884
licia	-11.7884
lmost	-11.7886
▁Alexandr	-11.7887
▁Vampires	-11.7888
▁interesting	-11.7889
▁Bana	-11.7896
ulders	-11.7896
▁egos	-11.7898
▁Think	-11.7899
▁Chin	-11.7904
located	-11.7907
▁Come	-11.7908
ath	-11.7913
ters	-11.7916
▁servants	-11.7917
here	-11.7921
tuous	-11.7921
▁Lives	-11.7922
▁Shi	-11.7924
▁Wire	-11.7929
▁inci	-11.793
▁confesse	-11.7935
▁Clem	-11.7935
▁Near	-11.7937
▁Marig	-11.7938
▁DS	-11.7942
▁Pierce	-11.7945
▁developers	-11.7946
ff	-11.7949
▁cards	-11.7949
▁Carlo	-11.795
tter	-11.7951
▁Cleo	-11.7957
▁Toni	-11.7961
▁Islami	-11.7961
▁26-	-11.7961
▁angels	-11.7963
sive	-11.7964
cCormack	-11.7969
evertheless	-11.797
icio	-11.7976
▁exit	-11.7978
▁evoke	-11.798
▁goof	-11.7987
▁Lenn	-11.7989
seven	-11.7998
imagine	-11.8003
Q	-11.801
▁telekine	-11.8012
▁ethnic	-11.8015
▁Travel	-11.8017
▁strings	-11.8017
▁circles	-11.8018
One	-11.802
Bella	-11.8021
▁utilize	-11.803
▁schools	-11.8035
▁Sands	-11.8036
▁extract	-11.8037
▁MacDo	-11.8048
▁patriot	-11.805
▁Doll	-11.8054
▁Grandma	-11.8057
▁pirates	-11.8058
itting	-11.8067
▁initiate	-11.8068
▁thro	-11.8071
▁succeeds	-11.8072
▁Mau	-11.8077
▁sc	-11.8079
▁implicate	-11.8081
▁exp	-11.8082
▁penn	-11.8082
temper	-11.8092
▁Sey	-11.8103
yman	-11.8108
▁Obi	-11.811
ked	-11.8116
version	-11.8118
▁Ham	-11.812
▁Mum	-11.812
▁Ol	-11.8126
-6	-11.8127
▁Lucki	-11.8128
▁regimen	-11.8138
▁spe	-11.8145
▁spots	-11.8146
lated	-11.8151
▁foes	-11.8151
where	-11.8154
nson	-11.8158
ggins	-11.8161
oney	-11.8163
▁settler	-11.8163
▁lodge	-11.8168
▁boot	-11.817
▁fray	-11.817
sed	-11.8171
▁Barn	-11.8172
▁Wh	-11.8174
itous	-11.8182
worthy	-11.8188
ives	-11.8192
Wes	-11.8196
▁chao	-11.8208
▁Isabell	-11.8208
otorious	-11.8208
izes	-11.8211
od	-11.8213
▁veterans	-11.8215
▁Sk	-11.8217
▁Oak	-11.8228
evel	-11.8232
▁ramb	-11.8236
▁addicts	-11.8238
▁Area	-11.824
▁Rat	-11.8246
▁sensational	-11.8248
▁Documentar	-11.8263
▁qua	-11.8263
▁collapses	-11.8265
▁wack	-11.8266
▁emergenc	-11.8271
▁helm	-11.8278
▁Sebastia	-11.8286
▁toast	-11.829
▁hound	-11.8297
▁Futur	-11.8299
use	-11.8302
▁unde	-11.8304
ors	-11.8308
▁Ground	-11.8316
▁remind	-11.8317
▁Gall	-11.8322
▁Norma	-11.8323
story	-11.8324
avant	-11.8327
▁McG	-11.8333
▁Hit	-11.8334
▁albums	-11.834
hane	-11.8341
▁chart	-11.8341
▁Johan	-11.8344
young	-11.835
tly	-11.835
▁regions	-11.8351
▁ep	-11.8353
▁Jul	-11.8353
▁Rapa	-11.8354
Maria	-11.8355
xie	-11.8359
▁phenomenal	-11.8361
alter	-11.837
bie	-11.8372
q	-11.8381
▁chas	-11.8385
▁ape	-11.8387
▁Blues	-11.8391
handling	-11.8393
ä	-11.8395
ermo	-11.8398
.(	-11.8401
Del	-11.8406
nia	-11.8421
▁Hild	-11.8427
friends	-11.8431
▁Want	-11.8434
▁Jade	-11.8446
▁Pack	-11.8451
trapped	-11.8454
▁tu	-11.8455
cultural	-11.8464
▁Nurs	-11.8471
▁Chu	-11.8476
▁Kings	-11.8483
▁Oka	-11.8503
▁Bru	-11.8503
▁priests	-11.8506
angel	-11.8509
▁Isla	-11.8514
▁ensu	-11.8515
▁Ryla	-11.8516
▁nu	-11.8518
▁whip	-11.8524
ttle	-11.8524
▁Rand	-11.8528
▁stumbl	-11.8529
gar	-11.853
arch	-11.8534
Chan	-11.8535
aci	-11.8538
fa	-11.854
▁dash	-11.8543
▁toy	-11.8551
lico	-11.8554
▁produc	-11.8562
▁Gang	-11.8565
▁closet	-11.8568
▁crafts	-11.8568
▁Rid	-11.8569
▁Pick	-11.8572
▁warn	-11.8574
▁dear	-11.8574
▁fil	-11.8577
▁Carr	-11.8577
into	-11.8578
▁Marines	-11.8583
▁Brand	-11.8584
▁gi	-11.8585
▁Rama	-11.8586
▁4-	-11.8589
ten	-11.8598
▁investigations	-11.8598
▁Zi	-11.8601
Be	-11.861
▁deft	-11.8616
Asa	-11.862
ienna	-11.8621
ssuming	-11.8625
▁replica	-11.8635
gli	-11.8639
they	-11.8639
▁Psycho	-11.864
▁occur	-11.8646
opoulos	-11.8658
sistance	-11.8665
▁integrate	-11.8674
▁Roby	-11.8675
▁Aid	-11.868
dden	-11.8682
Sully	-11.8686
master	-11.8686
training	-11.8687
hole	-11.8692
▁CA	-11.8696
llowing	-11.8698
▁relieve	-11.8703
actor	-11.8704
ray	-11.8704
▁reimagine	-11.8705
▁wrongful	-11.8706
ular	-11.8714
▁lik	-11.8719
▁Convi	-11.8723
▁bro	-11.8734
▁Os	-11.8749
▁Dani	-11.8754
best	-11.8756
rage	-11.8756
fighting	-11.8757
Any	-11.8764
horny	-11.8774
▁envelope	-11.8775
Wood	-11.8776
ks	-11.878
▁Chad	-11.8789
▁confess	-11.8797
▁writings	-11.8806
▁Jaa	-11.8816
Em	-11.8819
▁searche	-11.8825
▁shower	-11.883
▁baffl	-11.8833
isi	-11.8835
▁thug	-11.8838
ashi	-11.8843
documentary	-11.8844
connected	-11.8847
▁Dor	-11.8847
fighter	-11.8848
▁disasters	-11.8851
ely	-11.8859
rent	-11.8861
erner	-11.8864
▁Celi	-11.8866
media	-11.8872
▁Walters	-11.8878
tain	-11.8878
▁concerts	-11.8891
intention	-11.8897
▁Dora	-11.8908
▁Mur	-11.891
▁careen	-11.8919
▁aff	-11.8922
gains	-11.8925
▁Andrews	-11.8927
▁folks	-11.893
minent	-11.8935
▁Dust	-11.8936
World	-11.8937
▁Bone	-11.8939
▁Jew	-11.894
amed	-11.8946
grudg	-11.8946
▁pursu	-11.895
▁Draw	-11.8951
▁Cate	-11.8952
▁Zo	-11.8955
rson	-11.896
nced	-11.896
great	-11.8961
▁Com	-11.8963
What	-11.8972
▁min	-11.8972
Britt	-11.8975
▁phones	-11.8977
nova	-11.8979
Debra	-11.898
▁Mul	-11.8981
▁landscapes	-11.8982
ija	-11.8984
Kerry	-11.8987
My	-11.8988
TV	-11.8991
▁Person	-11.8991
▁courts	-11.8991
culture	-11.8992
▁abound	-11.8993
sca	-11.8995
Luis	-11.8996
▁Picture	-11.8998
▁towns	-11.8998
▁ram	-11.8999
Viola	-11.9
Bob	-11.9001
week	-11.9003
Rooney	-11.9005
▁Zak	-11.9005
▁tasks	-11.9006
▁practitioner	-11.9006
▁Panther	-11.9009
Pitt	-11.9009
▁merchant	-11.901
▁swap	-11.901
▁toddler	-11.9012
Luc	-11.9013
Gere	-11.9013
Penn	-11.9015
▁dig	-11.9015
comedian	-11.9016
food	-11.9017
Soviet	-11.9017
Rick	-11.9022
Banderas	-11.9022
WWII	-11.9022
Pedro	-11.9022
▁Ramon	-11.9022
Green	-11.9023
▁balloon	-11.9023
Tommy	-11.9024
▁catastrophe	-11.9025
Cameron	-11.9025
Blanchett	-11.9025
Dane	-11.9025
Kathleen	-11.9026
HBO	-11.9026
Lopez	-11.9026
Old	-11.9026
Quaid	-11.9026
Thornton	-11.9026
competitive	-11.9027
Tiffany	-11.9027
Empire	-11.9027
Miranda	-11.9027
▁ninja	-11.9027
Hudson	-11.9027
Kinnear	-11.9027
Pierre	-11.9027
Hart	-11.9027
Cusack	-11.9028
Nathan	-11.9028
Griffin	-11.9028
Clooney	-11.9028
Costner	-11.9028
Fiennes	-11.9028
buried	-11.9028
▁Motor	-11.9028
Sasha	-11.9028
anticipated	-11.9028
Abby	-11.9028
Garcia	-11.9028
Pacino	-11.9028
Freddie	-11.9028
Curtis	-11.9028
▁comprise	-11.9028
Kidman	-11.9028
Hoffman	-11.9029
mistress	-11.9029
Brandon	-11.903
Antonio	-11.903
Tracy	-11.9031
Drew	-11.9031
▁Hodge	-11.9031
convict	-11.9031
minute	-11.9033
grass	-11.9033
▁frontline	-11.9033
Shawn	-11.9033
René	-11.9033
Marion	-11.9033
rio	-11.9033
recious	-11.9034
▁expat	-11.9034
▁coworker	-11.9035
▁Tor	-11.9036
▁firefighter	-11.9036
▁Turk	-11.9036
Gary	-11.9037
▁Championship	-11.9037
▁objective	-11.9038
▁Poe	-11.9039
▁Liv	-11.904
▁nerve	-11.904
ivo	-11.904
ered	-11.904
▁Hampton	-11.9041
dominated	-11.9041
▁styles	-11.9041
▁circumstance	-11.9042
hunting	-11.9042
▁Record	-11.9042
▁delusion	-11.9042
▁sibling	-11.9043
Omar	-11.9044
▁benefit	-11.9044
▁blossom	-11.9044
▁repress	-11.9044
Laurie	-11.9044
▁proceed	-11.9044
▁Episode	-11.9046
▁fault	-11.9049
Malin	-11.9049
dealing	-11.905
hammad	-11.9052
▁Brother	-11.9054
▁Vic	-11.9055
▁qu	-11.9055
aki	-11.9056
▁smuggler	-11.9056
Boy	-11.9057
▁aspir	-11.906
Nikola	-11.906
ditch	-11.9061
heimer	-11.9061
woo	-11.9064
▁Ky	-11.9065
▁handler	-11.9069
▁session	-11.9074
ager	-11.9076
camp	-11.9077
▁outcome	-11.9079
▁Cost	-11.908
▁brut	-11.908
signs	-11.9083
hall	-11.9085
▁Abu	-11.9095
▁deploy	-11.9095
faced	-11.9096
partying	-11.9099
documented	-11.9104
▁defender	-11.911
▁Aki	-11.9112
▁hike	-11.9113
▁rocket	-11.9117
▁divorc	-11.9126
original	-11.9129
▁rank	-11.913
▁flower	-11.913
▁premier	-11.9136
▁escalate	-11.9143
Tild	-11.9146
▁32	-11.9147
▁skip	-11.9153
Eugeni	-11.9161
Christoph	-11.9162
your	-11.9163
▁restaurants	-11.9174
▁feast	-11.9176
▁reckon	-11.9177
gerton	-11.9178
▁Desi	-11.9182
▁Ukrain	-11.9182
▁Steel	-11.9184
▁page	-11.9188
▁acclaim	-11.919
▁marriages	-11.919
▁Uganda	-11.9191
▁bottle	-11.9191
▁Med	-11.9191
▁Teenage	-11.9193
tables	-11.9193
▁infectio	-11.9194
▁Act	-11.9198
▁torture	-11.9199
▁blame	-11.9203
▁Nigh	-11.9205
▁Duff	-11.9205
▁Work	-11.9207
▁address	-11.9211
tute	-11.9212
elinda	-11.9215
▁endanger	-11.9218
▁duplic	-11.9219
▁rapid	-11.922
▁Magda	-11.9221
▁broad	-11.9222
▁Perfect	-11.9223
▁deprav	-11.9223
*	-11.9224
▁Champion	-11.9224
▁involuntar	-11.9224
▁monoton	-11.9224
Saoirse	-11.9224
▁Auschwitz	-11.9224
▁Belgium	-11.9224
▁DeLorean	-11.9224
▁Gervais	-11.9224
▁Giuseppe	-11.9224
▁Government	-11.9224
▁Griswold	-11.9224
▁Hancock	-11.9224
▁Isolated	-11.9224
▁Jupiter	-11.9224
▁Krieps	-11.9224
▁Odenkirk	-11.9224
▁Salazar	-11.9224
▁Scandinavia	-11.9224
▁Scrooge	-11.9224
▁Seydoux	-11.9224
▁Transylvania	-11.9224
▁Tremblay	-11.9224
▁Tuesday	-11.9224
▁Umbrella	-11.9224
▁afloat	-11.9224
▁beguiling	-11.9224
▁debonair	-11.9224
▁declining	-11.9224
▁excursion	-11.9224
▁façade	-11.9224
▁fragility	-11.9224
▁guerrilla	-11.9224
▁hallucinatory	-11.9224
▁hormones	-11.9224
▁immune	-11.9224
▁militia	-11.9224
▁obnoxious	-11.9224
▁onslaught	-11.9224
▁procedural	-11.9224
▁pyramid	-11.9224
▁rampant	-11.9224
▁scrutiny	-11.9224
▁spellbinding	-11.9224
▁treachery	-11.9224
▁tremendous	-11.9224
▁yakuza	-11.9224
▁Derbez	-11.9224
▁Jeremiah	-11.9224
▁Lynskey	-11.9224
▁Palestine	-11.9224
▁Titans	-11.9224
▁Varda	-11.9224
▁destitute	-11.9224
▁rabid	-11.9224
▁remorse	-11.9224
▁Defense	-11.9224
▁McDorman	-11.9224
▁Miyagi	-11.9224
▁Stockholm	-11.9224
▁Watkins	-11.9224
▁extravaganza	-11.9224
▁pattern	-11.9224
▁Ahmad	-11.9224
▁splinter	-11.9224
dimensional	-11.9224
▁expansive	-11.9224
▁Winslow	-11.9224
▁dolphin	-11.9224
▁gallery	-11.9224
▁horizon	-11.9224
▁thorough	-11.9224
▁Cobain	-11.9224
▁curator	-11.9224
▁dialogue	-11.9224
▁mutiny	-11.9224
▁surrender	-11.9224
▁Hemingway	-11.9224
▁Chavez	-11.9224
▁software	-11.9224
▁ambigu	-11.9224
▁mainstream	-11.9224
▁nostalgi	-11.9224
▁Moriarty	-11.9224
▁Revenge	-11.9224
▁Spector	-11.9224
Melvil	-11.9224
▁Estonia	-11.9224
▁screwball	-11.9224
▁witchcraft	-11.9224
▁Prohibition	-11.9224
▁Territory	-11.9224
▁alibi	-11.9224
▁application	-11.9224
▁besiege	-11.9224
▁rainforest	-11.9224
▁reconsider	-11.9224
▁rallies	-11.9224
▁Imagine	-11.9224
▁Parliament	-11.9224
▁Vermont	-11.9224
▁cheap	-11.9224
▁dementia	-11.9224
▁website	-11.9224
▁chimpanzee	-11.9224
▁engross	-11.9224
▁Vivienne	-11.9224
▁Minhee	-11.9224
▁Paolo	-11.9224
▁gossip	-11.9224
▁immigration	-11.9224
▁Burnett	-11.9224
▁notebook	-11.9224
▁Salinger	-11.9224
▁scorned	-11.9224
▁babies	-11.9224
▁maraud	-11.9224
▁mischief	-11.9224
▁Colbert	-11.9224
▁Whitford	-11.9224
▁Vinci	-11.9224
▁clientele	-11.9224
▁psychotherapist	-11.9224
▁Bahamas	-11.9224
▁coincidental	-11.9224
▁Childhood	-11.9224
▁supermodel	-11.9224
27;	-11.9225
▁Utah	-11.9225
▁briefcase	-11.9225
▁Sparrow	-11.9225
▁Offerman	-11.9225
▁McClane	-11.9225
▁kindergarten	-11.9225
▁prosperity	-11.9225
▁philanthropist	-11.9225
▁cautionary	-11.9225
▁Levinson	-11.9225
▁Godfrey	-11.9225
▁subversive	-11.9225
▁Oakland	-11.9225
▁consummate	-11.9225
▁Axel	-11.9225
▁Segel	-11.9225
▁Roseanne	-11.9225
▁reenactments	-11.9225
▁hesitant	-11.9225
▁grasp	-11.9225
▁Oppenheimer	-11.9225
▁Brolin	-11.9225
▁Cutler	-11.9225
▁Sesame	-11.9225
▁lobby	-11.9225
▁Oslo	-11.9225
▁Runner	-11.9225
▁Picard	-11.9225
▁hardcore	-11.9225
▁retail	-11.9225
▁Ronnie	-11.9225
▁cloud	-11.9225
▁vital	-11.9225
▁Dickinson	-11.9225
▁tiger	-11.9225
▁Heidi	-11.9225
▁Slim	-11.9225
▁meanwhile	-11.9225
▁Buzz	-11.9225
boiled	-11.9225
▁vocalist	-11.9225
▁feverish	-11.9225
▁Ballard	-11.9225
▁Warhol	-11.9225
▁Dormer	-11.9225
▁Stanford	-11.9225
▁Portugal	-11.9225
▁heartbroken	-11.9225
▁1850	-11.9225
▁glitz	-11.9225
▁Melville	-11.9226
▁archaeologist	-11.9226
▁colour	-11.9226
▁debauchery	-11.9226
▁unnatural	-11.9226
▁congressman	-11.9226
▁cyborg	-11.9226
Prinze	-11.9226
▁Jansen	-11.9226
▁Damme	-11.9226
▁exterior	-11.9226
▁devious	-11.9226
▁1924	-11.9226
▁Mossad	-11.9226
▁stepmother	-11.9226
▁Huang	-11.9226
▁Blaze	-11.9226
▁Richter	-11.9226
▁shotgun	-11.9226
▁Gould	-11.9226
▁gloom	-11.9226
▁Joker	-11.9226
▁prophecy	-11.9226
▁unemployment	-11.9226
▁Lyonne	-11.9226
▁Seyfri	-11.9226
▁Woodward	-11.9226
▁Cornell	-11.9226
▁unpopular	-11.9226
▁Present	-11.9227
▁mainland	-11.9227
▁cabbie	-11.9227
▁medium	-11.9227
▁sculptor	-11.9227
▁skating	-11.9227
▁Irving	-11.9227
▁uncompromising	-11.9227
Cate	-11.9227
▁amends	-11.9227
▁Neville	-11.9227
▁Momma	-11.9227
▁Carver	-11.9227
▁Morales	-11.9227
▁confinement	-11.9227
▁Dinner	-11.9227
▁strategy	-11.9228
▁Curry	-11.9228
▁entwined	-11.9228
girls	-11.9228
▁mortality	-11.9228
▁unparalleled	-11.9228
▁uncertainty	-11.9228
▁Clash	-11.9228
▁Peru	-11.9228
▁Yuri	-11.9228
▁parish	-11.9228
▁dumb	-11.9228
▁gladiator	-11.9228
▁televis	-11.9228
▁liaison	-11.9228
▁rejection	-11.9228
▁relie	-11.9228
▁bicycle	-11.9229
▁harass	-11.9229
▁license	-11.9229
▁Romero	-11.9229
▁Divine	-11.9229
▁ravishing	-11.9229
▁architecture	-11.9229
▁clothing	-11.9229
▁preoccupied	-11.9229
▁Cyber	-11.9229
▁anywhere	-11.9229
▁Hector	-11.9229
▁wisecracking	-11.9229
▁Ultimately	-11.9229
▁echoes	-11.923
▁engagement	-11.923
handedly	-11.923
▁leather	-11.923
▁nobleman	-11.923
▁rife	-11.923
▁Keener	-11.9231
▁Ballet	-11.9231
▁Elmore	-11.9231
▁confound	-11.9231
▁characteristic	-11.9231
▁bracing	-11.9231
▁prospector	-11.9231
▁Ochoa	-11.9231
▁Garc	-11.9231
▁Webber	-11.9231
▁Colter	-11.9232
▁Wife	-11.9232
▁Naval	-11.9232
▁strait	-11.9232
▁videotape	-11.9232
▁Clinton	-11.9233
▁Ingrid	-11.9233
▁unmask	-11.9233
▁imaginable	-11.9233
▁violin	-11.9233
▁Regan	-11.9233
▁supreme	-11.9233
▁Daily	-11.9233
▁Chung	-11.9233
▁tomorrow	-11.9233
▁bayou	-11.9233
▁insecurities	-11.9234
▁Gracie	-11.9234
▁kindness	-11.9234
▁Mission	-11.9234
▁Border	-11.9234
▁bodybuilder	-11.9234
▁exec	-11.9234
▁Xuan	-11.9234
▁Diary	-11.9234
▁Haru	-11.9234
▁promot	-11.9234
▁Dahl	-11.9234
▁Lux	-11.9235
▁Blade	-11.9235
▁depiction	-11.9235
▁salvag	-11.9235
▁Jody	-11.9235
▁bickering	-11.9235
▁Gillan	-11.9235
▁uninvited	-11.9235
▁Antarctica	-11.9235
▁feline	-11.9236
▁Hil	-11.9236
▁RV	-11.9237
▁Boondock	-11.9237
▁boom	-11.9237
▁Dyne	-11.9238
▁grifter	-11.9238
▁Lillian	-11.9238
▁agenda	-11.9238
▁illuminating	-11.9238
▁literal	-11.9239
▁fright	-11.9239
▁Bat	-11.9239
▁gyps	-11.9239
▁apprehend	-11.924
▁relic	-11.924
▁permanently	-11.924
▁unshak	-11.924
▁data	-11.924
▁hostilit	-11.924
clad	-11.9241
▁impression	-11.9241
▁chip	-11.9241
lined	-11.9241
▁Fury	-11.9241
▁exhausted	-11.9241
▁calm	-11.9242
▁Singer	-11.9242
▁Swing	-11.9242
▁Mind	-11.9243
▁payday	-11.9243
▁sober	-11.9243
▁Talk	-11.9243
▁Sox	-11.9243
▁Kru	-11.9244
▁install	-11.9244
▁sarcastic	-11.9244
▁momentous	-11.9244
▁Lister	-11.9244
▁pluck	-11.9244
▁verbal	-11.9245
▁divine	-11.9245
▁tormentor	-11.9246
▁dizzy	-11.9246
ghast	-11.9246
▁lyrics	-11.9246
▁Marling	-11.9247
▁enact	-11.9247
▁poem	-11.9248
▁exorcism	-11.9248
▁brewing	-11.9248
▁Gerwig	-11.9248
▁Gugino	-11.9248
▁hurricane	-11.9248
▁Weisz	-11.9248
▁correct	-11.9248
▁Cheadle	-11.9248
▁Ulrich	-11.9248
▁Juli	-11.9248
▁Katrina	-11.9248
▁Marguerite	-11.9248
▁Siberia	-11.9248
▁Sinclair	-11.9248
▁capacit	-11.9248
▁Seagal	-11.9248
▁Priscilla	-11.9248
▁zoologist	-11.9248
▁Malkovich	-11.9248
▁Alfie	-11.9248
▁Blond	-11.9248
▁Mallory	-11.9248
▁Frederick	-11.9248
▁Hanson	-11.9248
▁Leila	-11.9249
▁Klein	-11.9249
▁Lifetime	-11.9249
▁Jacobson	-11.9249
▁Jefferson	-11.9249
▁Linney	-11.9249
▁suave	-11.9249
▁Kitchen	-11.9249
▁awesome	-11.9249
▁temporarily	-11.925
▁exploitation	-11.925
▁descendant	-11.925
▁blissful	-11.925
▁extraordinar	-11.925
▁arsenal	-11.925
▁Adult	-11.925
▁illustrator	-11.925
▁Gosling	-11.925
▁Barrett	-11.925
▁romp	-11.925
▁Stanton	-11.9251
▁Cathy	-11.9251
▁Tab	-11.9252
▁Vance	-11.9252
▁Chun	-11.9253
▁fringes	-11.9254
▁supplies	-11.9254
▁Rossi	-11.9255
▁Riggs	-11.9255
▁gardener	-11.9255
▁Republican	-11.9255
▁dim	-11.9256
▁Holden	-11.9256
▁reborn	-11.9256
▁scroll	-11.9256
Yar	-11.9257
▁Celeste	-11.9257
▁Hillary	-11.9257
▁Maryland	-11.9258
▁repeating	-11.9258
▁overhear	-11.9258
engineered	-11.9259
▁masterfully	-11.9259
▁realism	-11.9259
▁keen	-11.926
▁Biel	-11.926
▁womanizing	-11.926
▁boring	-11.926
▁Maxine	-11.9261
▁Daughter	-11.9261
travelling	-11.9262
Sh	-11.9263
▁rapist	-11.9263
▁Christie	-11.9263
▁38	-11.9265
▁Smit	-11.9265
racing	-11.9266
▁commissioned	-11.9266
▁booming	-11.9267
▁ethics	-11.9267
▁makeover	-11.9267
▁Bright	-11.9267
▁Duck	-11.9267
▁Creed	-11.9268
▁Ignor	-11.9268
▁hardest	-11.9269
▁outlook	-11.927
▁closure	-11.9271
▁publication	-11.9271
▁Wallis	-11.9272
▁assassinated	-11.9273
▁Bret	-11.9273
spann	-11.9273
▁JJ	-11.9274
▁pounds	-11.9277
▁conman	-11.9277
▁drown	-11.9277
▁feeding	-11.9277
▁perpetrators	-11.9278
▁Cummings	-11.9278
ova	-11.9279
rick	-11.928
▁embed	-11.928
▁prayer	-11.9281
▁redefined	-11.9281
▁successor	-11.9281
AT	-11.9282
▁Tupac	-11.9283
▁Rafael	-11.9283
▁thirties	-11.9283
▁Chaplin	-11.9283
▁Depardieu	-11.9283
▁suicidal	-11.9283
▁Connolly	-11.9283
▁Student	-11.9284
▁Sierra	-11.9284
▁Judith	-11.9285
▁evolving	-11.9285
▁trash	-11.9286
▁Sacha	-11.9287
▁Bowen	-11.9288
▁Enos	-11.9289
Aldis	-11.9292
▁Bride	-11.9293
▁Lyon	-11.9293
▁effective	-11.9294
har	-11.9295
▁Au	-11.9295
▁prov	-11.9296
▁Willow	-11.9297
▁Hicks	-11.9297
▁deepens	-11.9298
affected	-11.9298
▁thick	-11.9298
▁stalker	-11.9298
equality	-11.9299
▁jo	-11.93
▁resembles	-11.9302
▁Bryant	-11.9303
▁Initial	-11.9304
▁Flag	-11.9304
▁blackmailed	-11.9306
▁Serge	-11.9306
mitten	-11.9306
▁decimate	-11.9308
▁IT	-11.9308
▁complicate	-11.9309
▁Brought	-11.931
▁zero	-11.9311
▁Killing	-11.9311
▁Evangeli	-11.9311
▁Affairs	-11.9311
▁straighten	-11.9311
▁Brooke	-11.9312
▁listening	-11.9313
▁Bong	-11.9314
▁USS	-11.9315
▁True	-11.9317
▁Olivier	-11.9319
▁fog	-11.9319
▁werewolves	-11.932
▁Argento	-11.9321
▁resurrected	-11.9322
▁motivated	-11.9322
▁officially	-11.9322
▁Lucien	-11.9323
sis	-11.9323
▁choreographer	-11.9324
▁Dench	-11.9324
Red	-11.9325
▁duel	-11.9327
▁Risk	-11.9327
▁guise	-11.9327
▁likeable	-11.9329
▁Keep	-11.933
▁Nile	-11.9331
▁Fielding	-11.9333
▁Meadows	-11.9334
▁translat	-11.9335
▁lower	-11.9336
cracking	-11.9336
▁villager	-11.9339
▁Swan	-11.934
▁reclaimed	-11.934
▁NC	-11.9341
compromising	-11.9341
▁Make	-11.9341
▁facets	-11.9343
▁marksman	-11.9343
▁cosmos	-11.9344
▁42	-11.9344
▁poachers	-11.9346
▁waiter	-11.9346
▁bulli	-11.9347
▁mute	-11.9347
▁Zap	-11.9348
▁rel	-11.9348
▁anticipate	-11.9351
▁racer	-11.9352
yl	-11.9352
loyd	-11.9353
12	-11.9353
nda	-11.9354
rthodox	-11.9356
▁expecting	-11.9357
▁Rebel	-11.9358
▁loft	-11.936
▁presides	-11.9362
▁Lex	-11.9363
Yun	-11.9365
▁Dustin	-11.9365
▁joyful	-11.9367
▁Pilgrim	-11.9368
▁hom	-11.9368
▁gro	-11.9368
ming	-11.9371
▁nightlife	-11.9372
▁Spot	-11.9378
▁Tate	-11.9379
▁escapades	-11.938
▁rhythms	-11.938
▁bullie	-11.938
▁accusations	-11.938
▁uproot	-11.9382
▁Gregg	-11.9382
▁Costa	-11.9384
▁Estell	-11.9384
▁Jobs	-11.9385
▁ogre	-11.9386
vant	-11.9386
▁esteem	-11.939
?”	-11.9391
▁sessions	-11.9392
▁pills	-11.9394
▁youngsters	-11.9394
escent	-11.9398
▁devo	-11.9399
az	-11.9399
▁achieved	-11.94
▁timeline	-11.9401
▁compell	-11.9401
uk	-11.9402
▁faster	-11.9403
▁Corey	-11.9405
▁Elg	-11.9409
▁dar	-11.9409
▁influencer	-11.941
▁Championships	-11.9415
▁Chon	-11.9415
aked	-11.9416
▁Kumar	-11.9416
▁Christin	-11.9418
▁raped	-11.9423
▁Wet	-11.9424
▁cruis	-11.9424
lways	-11.9427
nting	-11.9427
▁Sala	-11.9427
▁Banderas	-11.943
▁appeared	-11.9431
▁Pedro	-11.9432
onic	-11.9433
▁reel	-11.9435
▁touche	-11.9436
▁coerce	-11.9438
mother	-11.944
▁gear	-11.944
▁Beer	-11.9443
▁Grier	-11.9443
▁Cena	-11.9447
▁medal	-11.9447
▁Gaga	-11.9448
▁Muppets	-11.9449
▁Vikings	-11.9449
▁belongings	-11.945
▁Ghosts	-11.9452
▁remembered	-11.9455
cre	-11.9455
▁Mario	-11.9455
▁dramas	-11.9456
▁crushed	-11.9456
ists	-11.9456
ull	-11.9457
▁Clint	-11.9457
ging	-11.9459
gger	-11.946
▁employed	-11.946
▁answered	-11.9462
▁allure	-11.9464
▁theorist	-11.9465
▁Spy	-11.9467
▁Marcos	-11.9468
▁2,	-11.9468
▁maniac	-11.9468
space	-11.947
[...]
